// FLOAT16 model for ESP32 IMU sensors
// Model size: 6928 bytes (6.77 KB)
// Optimized for sensor data with high precision

#ifndef MODEL_H
#define MODEL_H

alignas(8) const unsigned char model_data[] = {
  0x1c, 0x00, 0x00, 0x00, 0x54, 0x46, 0x4c, 0x33, 0x14, 0x00, 0x20, 0x00,
  0x1c, 0x00, 0x18, 0x00, 0x14, 0x00, 0x10, 0x00, 0x0c, 0x00, 0x00, 0x00,
  0x08, 0x00, 0x04, 0x00, 0x14, 0x00, 0x00, 0x00, 0x1c, 0x00, 0x00, 0x00,
  0x8c, 0x00, 0x00, 0x00, 0x14, 0x01, 0x00, 0x00, 0xdc, 0x0a, 0x00, 0x00,
  0xec, 0x0a, 0x00, 0x00, 0x4c, 0x1a, 0x00, 0x00, 0x03, 0x00, 0x00, 0x00,
  0x01, 0x00, 0x00, 0x00, 0x04, 0x00, 0x00, 0x00, 0x42, 0xf3, 0xff, 0xff,
  0x0c, 0x00, 0x00, 0x00, 0x1c, 0x00, 0x00, 0x00, 0x3c, 0x00, 0x00, 0x00,
  0x0f, 0x00, 0x00, 0x00, 0x73, 0x65, 0x72, 0x76, 0x69, 0x6e, 0x67, 0x5f,
  0x64, 0x65, 0x66, 0x61, 0x75, 0x6c, 0x74, 0x00, 0x01, 0x00, 0x00, 0x00,
  0x04, 0x00, 0x00, 0x00, 0x60, 0xff, 0xff, 0xff, 0x1e, 0x00, 0x00, 0x00,
  0x04, 0x00, 0x00, 0x00, 0x08, 0x00, 0x00, 0x00, 0x6f, 0x75, 0x74, 0x70,
  0x75, 0x74, 0x5f, 0x30, 0x00, 0x00, 0x00, 0x00, 0x01, 0x00, 0x00, 0x00,
  0x04, 0x00, 0x00, 0x00, 0xaa, 0xf5, 0xff, 0xff, 0x04, 0x00, 0x00, 0x00,
  0x0c, 0x00, 0x00, 0x00, 0x6b, 0x65, 0x72, 0x61, 0x73, 0x5f, 0x74, 0x65,
  0x6e, 0x73, 0x6f, 0x72, 0x00, 0x00, 0x00, 0x00, 0x03, 0x00, 0x00, 0x00,
  0x64, 0x00, 0x00, 0x00, 0x2c, 0x00, 0x00, 0x00, 0x04, 0x00, 0x00, 0x00,
  0xb0, 0xff, 0xff, 0xff, 0x22, 0x00, 0x00, 0x00, 0x04, 0x00, 0x00, 0x00,
  0x13, 0x00, 0x00, 0x00, 0x43, 0x4f, 0x4e, 0x56, 0x45, 0x52, 0x53, 0x49,
  0x4f, 0x4e, 0x5f, 0x4d, 0x45, 0x54, 0x41, 0x44, 0x41, 0x54, 0x41, 0x00,
  0xd4, 0xff, 0xff, 0xff, 0x21, 0x00, 0x00, 0x00, 0x04, 0x00, 0x00, 0x00,
  0x19, 0x00, 0x00, 0x00, 0x72, 0x65, 0x64, 0x75, 0x63, 0x65, 0x64, 0x5f,
  0x70, 0x72, 0x65, 0x63, 0x69, 0x73, 0x69, 0x6f, 0x6e, 0x5f, 0x73, 0x75,
  0x70, 0x70, 0x6f, 0x72, 0x74, 0x00, 0x00, 0x00, 0x08, 0x00, 0x0c, 0x00,
  0x08, 0x00, 0x04, 0x00, 0x08, 0x00, 0x00, 0x00, 0x20, 0x00, 0x00, 0x00,
  0x04, 0x00, 0x00, 0x00, 0x13, 0x00, 0x00, 0x00, 0x6d, 0x69, 0x6e, 0x5f,
  0x72, 0x75, 0x6e, 0x74, 0x69, 0x6d, 0x65, 0x5f, 0x76, 0x65, 0x72, 0x73,
  0x69, 0x6f, 0x6e, 0x00, 0x23, 0x00, 0x00, 0x00, 0xc4, 0x09, 0x00, 0x00,
  0xbc, 0x09, 0x00, 0x00, 0xa8, 0x09, 0x00, 0x00, 0x8c, 0x09, 0x00, 0x00,
  0x78, 0x09, 0x00, 0x00, 0x58, 0x09, 0x00, 0x00, 0xc8, 0x08, 0x00, 0x00,
  0xa8, 0x08, 0x00, 0x00, 0xd8, 0x04, 0x00, 0x00, 0xc8, 0x01, 0x00, 0x00,
  0xac, 0x01, 0x00, 0x00, 0x90, 0x01, 0x00, 0x00, 0x60, 0x01, 0x00, 0x00,
  0x40, 0x01, 0x00, 0x00, 0x38, 0x01, 0x00, 0x00, 0x30, 0x01, 0x00, 0x00,
  0x28, 0x01, 0x00, 0x00, 0x20, 0x01, 0x00, 0x00, 0x18, 0x01, 0x00, 0x00,
  0x10, 0x01, 0x00, 0x00, 0x08, 0x01, 0x00, 0x00, 0x00, 0x01, 0x00, 0x00,
  0xf8, 0x00, 0x00, 0x00, 0xf0, 0x00, 0x00, 0x00, 0xe8, 0x00, 0x00, 0x00,
  0xe0, 0x00, 0x00, 0x00, 0xd8, 0x00, 0x00, 0x00, 0xd0, 0x00, 0x00, 0x00,
  0xc8, 0x00, 0x00, 0x00, 0xc0, 0x00, 0x00, 0x00, 0xb8, 0x00, 0x00, 0x00,
  0xb0, 0x00, 0x00, 0x00, 0x90, 0x00, 0x00, 0x00, 0x74, 0x00, 0x00, 0x00,
  0x04, 0x00, 0x00, 0x00, 0xe2, 0xf6, 0xff, 0xff, 0x04, 0x00, 0x00, 0x00,
  0x60, 0x00, 0x00, 0x00, 0x0c, 0x00, 0x00, 0x00, 0x08, 0x00, 0x0e, 0x00,
  0x08, 0x00, 0x04, 0x00, 0x08, 0x00, 0x00, 0x00, 0x10, 0x00, 0x00, 0x00,
  0x28, 0x00, 0x00, 0x00, 0x00, 0x00, 0x06, 0x00, 0x08, 0x00, 0x04, 0x00,
  0x06, 0x00, 0x00, 0x00, 0x04, 0x00, 0x00, 0x00, 0x01, 0x00, 0x00, 0x00,
  0xe9, 0x03, 0x00, 0x00, 0x0c, 0x00, 0x18, 0x00, 0x14, 0x00, 0x10, 0x00,
  0x0c, 0x00, 0x04, 0x00, 0x0c, 0x00, 0x00, 0x00, 0x0e, 0x53, 0xa0, 0xb3,
  0xe1, 0xda, 0xdf, 0xa1, 0x02, 0x00, 0x00, 0x00, 0x02, 0x00, 0x00, 0x00,
  0x04, 0x00, 0x00, 0x00, 0x06, 0x00, 0x00, 0x00, 0x32, 0x2e, 0x31, 0x38,
  0x2e, 0x30, 0x00, 0x00, 0x4e, 0xf7, 0xff, 0xff, 0x04, 0x00, 0x00, 0x00,
  0x0b, 0x00, 0x00, 0x00, 0x66, 0x70, 0x31, 0x36, 0x61, 0x63, 0x63, 0x66,
  0x70, 0x33, 0x32, 0x00, 0x66, 0xf7, 0xff, 0xff, 0x04, 0x00, 0x00, 0x00,
  0x10, 0x00, 0x00, 0x00, 0x31, 0x2e, 0x31, 0x35, 0x2e, 0x30, 0x00, 0x00,
  0x00, 0x00, 0x00, 0x00, 0x00, 0x00, 0x00, 0x00, 0x28, 0xe8, 0xff, 0xff,
  0x2c, 0xe8, 0xff, 0xff, 0x30, 0xe8, 0xff, 0xff, 0x34, 0xe8, 0xff, 0xff,
  0x38, 0xe8, 0xff, 0xff, 0x3c, 0xe8, 0xff, 0xff, 0x40, 0xe8, 0xff, 0xff,
  0x44, 0xe8, 0xff, 0xff, 0x48, 0xe8, 0xff, 0xff, 0x4c, 0xe8, 0xff, 0xff,
  0x50, 0xe8, 0xff, 0xff, 0x54, 0xe8, 0xff, 0xff, 0x58, 0xe8, 0xff, 0xff,
  0x5c, 0xe8, 0xff, 0xff, 0x60, 0xe8, 0xff, 0xff, 0x64, 0xe8, 0xff, 0xff,
  0x68, 0xe8, 0xff, 0xff, 0x6c, 0xe8, 0xff, 0xff, 0xca, 0xf7, 0xff, 0xff,
  0x04, 0x00, 0x00, 0x00, 0x10, 0x00, 0x00, 0x00, 0x34, 0x31, 0x23, 0x35,
  0x98, 0x2a, 0x65, 0x39, 0xec, 0xae, 0xec, 0x32, 0xf2, 0xa5, 0x47, 0x37,
  0xe6, 0xf7, 0xff, 0xff, 0x04, 0x00, 0x00, 0x00, 0x20, 0x00, 0x00, 0x00,
  0xd0, 0xb6, 0x9a, 0xb8, 0x3c, 0x2e, 0x16, 0xb7, 0x66, 0x35, 0xed, 0x35,
  0x88, 0xb3, 0x51, 0x2d, 0xe7, 0x31, 0xde, 0xa1, 0xd1, 0x2c, 0xac, 0xb7,
  0x80, 0x32, 0x3c, 0x2b, 0xe3, 0xb5, 0xe1, 0xb5, 0x12, 0xf8, 0xff, 0xff,
  0x04, 0x00, 0x00, 0x00, 0x0c, 0x00, 0x00, 0x00, 0xff, 0xff, 0xff, 0xff,
  0x06, 0x00, 0x00, 0x00, 0x08, 0x00, 0x00, 0x00, 0x2a, 0xf8, 0xff, 0xff,
  0x04, 0x00, 0x00, 0x00, 0x0c, 0x00, 0x00, 0x00, 0xff, 0xff, 0xff, 0xff,
  0x08, 0x00, 0x00, 0x00, 0x10, 0x00, 0x00, 0x00, 0x42, 0xf8, 0xff, 0xff,
  0x04, 0x00, 0x00, 0x00, 0x00, 0x03, 0x00, 0x00, 0x70, 0x16, 0x5e, 0x32,
  0xed, 0x30, 0xef, 0xa8, 0xde, 0x29, 0x76, 0x37, 0x5d, 0x37, 0xf5, 0xb9,
  0xf5, 0xb4, 0x01, 0xba, 0xb2, 0x3b, 0x19, 0xb6, 0xc4, 0x2f, 0xeb, 0xb6,
  0x6d, 0x32, 0x73, 0xb1, 0x9d, 0x37, 0xe4, 0x38, 0xc4, 0x35, 0x16, 0x31,
  0x38, 0xb8, 0x7e, 0x36, 0x2c, 0x37, 0x87, 0xb7, 0xee, 0xb7, 0x94, 0xb8,
  0xc9, 0x35, 0x1b, 0xb5, 0x5e, 0x37, 0x65, 0x32, 0x88, 0x2c, 0xf0, 0x30,
  0xa1, 0xa5, 0xdd, 0x3c, 0x71, 0x9e, 0xd5, 0x2a, 0x6e, 0xa8, 0xee, 0x2d,
  0x50, 0xa2, 0x7f, 0xba, 0x3c, 0xab, 0xda, 0xbd, 0x79, 0x33, 0x71, 0xb4,
  0xc4, 0x3b, 0x26, 0xb6, 0x39, 0x34, 0x7f, 0xb6, 0x73, 0x35, 0xb5, 0xb8,
  0xf8, 0xbe, 0xf1, 0xb6, 0x9d, 0xb6, 0x37, 0x39, 0x41, 0x38, 0x4e, 0x39,
  0xdc, 0xb9, 0x23, 0x30, 0x4d, 0xbf, 0x33, 0x38, 0xbe, 0xb1, 0x15, 0x3a,
  0x6e, 0x33, 0x33, 0x1f, 0xc5, 0x2d, 0xdd, 0xab, 0x6a, 0xb9, 0xdf, 0xa5,
  0xcc, 0xb3, 0x59, 0x39, 0x62, 0xb4, 0xea, 0x34, 0x48, 0xb8, 0x4a, 0x2f,
  0x9c, 0x38, 0x64, 0xa8, 0x12, 0x34, 0x50, 0x35, 0x2d, 0x37, 0xf9, 0xb1,
  0x5b, 0x33, 0xf5, 0xaa, 0x3e, 0xb8, 0x5e, 0xb8, 0x39, 0x2b, 0xf4, 0x31,
  0x0d, 0xbc, 0xba, 0xb5, 0x77, 0xbe, 0xf4, 0x33, 0x96, 0xbd, 0x23, 0xb8,
  0xac, 0xb3, 0x8f, 0xb3, 0xf8, 0x36, 0x6c, 0xb5, 0x40, 0x33, 0xfb, 0xb0,
  0x23, 0xb6, 0xf3, 0x2d, 0x47, 0x35, 0xc7, 0xb0, 0x33, 0x35, 0x4a, 0xbe,
  0xd1, 0x28, 0xb6, 0x29, 0x62, 0x30, 0x9b, 0xb7, 0x40, 0x3a, 0x09, 0xbc,
  0x81, 0x34, 0xa2, 0xb4, 0x86, 0x34, 0x80, 0xb8, 0xf6, 0xbf, 0x07, 0x34,
  0xcc, 0xae, 0xc7, 0xa9, 0x1c, 0xac, 0x5b, 0xbe, 0x87, 0xac, 0x3b, 0xad,
  0xee, 0xb4, 0x09, 0xbb, 0x4b, 0x38, 0xa8, 0xba, 0x58, 0x32, 0xb3, 0x2e,
  0xb8, 0x34, 0x3a, 0x35, 0xa1, 0xbc, 0xd0, 0x31, 0xe0, 0xac, 0xf6, 0xa2,
  0x36, 0xaf, 0x83, 0xc0, 0xfa, 0x32, 0xc2, 0x33, 0x37, 0xb8, 0x93, 0xbb,
  0x2d, 0x34, 0xa8, 0xb8, 0xa2, 0x38, 0x19, 0xb4, 0xfc, 0xb2, 0x51, 0x31,
  0x78, 0x3b, 0x4d, 0x2c, 0xce, 0xb4, 0x6a, 0x2d, 0x61, 0xae, 0xf6, 0x30,
  0xb4, 0x26, 0x5a, 0x2a, 0x84, 0x30, 0x60, 0x26, 0x09, 0xb1, 0x90, 0xb3,
  0x7b, 0x36, 0x6a, 0x31, 0x5d, 0xa7, 0x86, 0xad, 0x46, 0xaa, 0x39, 0xb0,
  0x96, 0x31, 0x16, 0xb5, 0x5f, 0xad, 0x99, 0xb3, 0xf9, 0xac, 0x2f, 0xb6,
  0xa4, 0xb1, 0x34, 0x36, 0x2e, 0x30, 0x79, 0x33, 0x51, 0x33, 0xc6, 0x37,
  0x99, 0xb2, 0x0f, 0x3b, 0xd9, 0xb4, 0x48, 0x39, 0x0e, 0x32, 0x0d, 0xb3,
  0xc0, 0x2c, 0xd4, 0x2c, 0x0a, 0xac, 0x5d, 0xbb, 0x6a, 0xaa, 0x15, 0xae,
  0x68, 0x37, 0x6c, 0xb1, 0xf0, 0x35, 0x4d, 0x2e, 0x2c, 0x33, 0x28, 0xb4,
  0x6f, 0xb1, 0x05, 0x34, 0xee, 0x34, 0x4c, 0x31, 0xaa, 0x36, 0x80, 0x31,
  0x83, 0x32, 0x1c, 0xb8, 0x6f, 0xb0, 0x3a, 0xb8, 0x4b, 0x34, 0x62, 0xb8,
  0x3a, 0xab, 0x99, 0xbd, 0x1b, 0x3a, 0x35, 0xbc, 0x5b, 0xb5, 0x9b, 0x34,
  0x9c, 0xb1, 0xb6, 0x37, 0x18, 0xb2, 0x8d, 0x35, 0xb2, 0x2a, 0x7a, 0xba,
  0xfc, 0xb2, 0x12, 0x2d, 0xfe, 0x38, 0x4a, 0xb6, 0xca, 0xae, 0x6a, 0xbb,
  0xea, 0x39, 0x44, 0xb9, 0x77, 0x35, 0xd7, 0x37, 0x62, 0xb6, 0x81, 0x38,
  0x84, 0xb2, 0x8f, 0xb4, 0xdd, 0xb2, 0x4d, 0xb8, 0x9b, 0xb2, 0xe2, 0x2e,
  0x12, 0x38, 0xd6, 0xb5, 0xc3, 0xae, 0xc1, 0xbb, 0x9c, 0x36, 0xf8, 0x2a,
  0xad, 0xac, 0x25, 0xb9, 0x83, 0x2a, 0x92, 0x38, 0x65, 0x3a, 0x18, 0x39,
  0xb7, 0x31, 0x3a, 0xb5, 0xbd, 0xa7, 0xa5, 0x34, 0x62, 0xb4, 0xcb, 0x34,
  0xbe, 0xb3, 0x46, 0x31, 0x12, 0x36, 0xe8, 0xa7, 0x2d, 0xad, 0x5e, 0x28,
  0x7b, 0xb0, 0x63, 0x2f, 0x35, 0x2f, 0xfa, 0xa8, 0xec, 0xb4, 0xba, 0x34,
  0xe2, 0x1c, 0x00, 0x34, 0x1e, 0x2f, 0xd8, 0x30, 0x8f, 0x1c, 0x45, 0xb5,
  0x84, 0xa6, 0x81, 0xb4, 0x73, 0xb3, 0xb6, 0xb8, 0x31, 0xbe, 0x97, 0xb0,
  0xfe, 0x29, 0x90, 0x38, 0x2a, 0x31, 0x97, 0x39, 0x9f, 0x32, 0xde, 0xb7,
  0x2a, 0xba, 0x6d, 0x29, 0xb6, 0xb7, 0xd2, 0xa9, 0xac, 0x38, 0xca, 0xb7,
  0xfc, 0xb5, 0x21, 0x35, 0x25, 0xb5, 0x0b, 0x39, 0x82, 0xc0, 0x33, 0xb7,
  0x56, 0xba, 0x5e, 0x34, 0x6d, 0xa7, 0x08, 0x30, 0x97, 0xb4, 0x95, 0x31,
  0xd5, 0x36, 0x7d, 0xb7, 0xe0, 0x37, 0x42, 0xb9, 0x1f, 0x2c, 0x2f, 0xa3,
  0x4c, 0x28, 0xd2, 0x36, 0x8a, 0xbc, 0xea, 0x30, 0xf2, 0xb1, 0x73, 0x34,
  0x36, 0x29, 0x0e, 0xb5, 0x40, 0xb7, 0x6e, 0xaf, 0x0c, 0x31, 0x0b, 0x2a,
  0x6b, 0x39, 0xd8, 0x21, 0x50, 0x37, 0xc0, 0x31, 0x32, 0xb0, 0x0d, 0x33,
  0xf6, 0x2f, 0x28, 0x35, 0x0b, 0xa9, 0x9b, 0x33, 0x4c, 0xbf, 0xca, 0xae,
  0xf0, 0xb8, 0x04, 0xb7, 0x28, 0x93, 0xa4, 0xb0, 0xb2, 0xb0, 0xb4, 0x32,
  0x25, 0xaf, 0x6a, 0x37, 0x0e, 0xb4, 0x08, 0x36, 0x0b, 0xb7, 0x0c, 0x39,
  0xcf, 0xb7, 0xe8, 0xb0, 0x8a, 0xbe, 0xd2, 0x38, 0xa0, 0x30, 0x80, 0xb2,
  0xee, 0x18, 0xc5, 0xb6, 0x78, 0xa4, 0x1d, 0xb0, 0xc4, 0x2e, 0x88, 0x32,
  0x60, 0xb6, 0x22, 0x35, 0x0c, 0x31, 0x2a, 0x3b, 0x41, 0xb7, 0xe8, 0xb1,
  0x41, 0xc1, 0x45, 0x34, 0xd0, 0xb0, 0x39, 0x2e, 0x34, 0xaf, 0x62, 0xb9,
  0xcf, 0xb7, 0x3b, 0xaf, 0x1f, 0xb4, 0xea, 0x31, 0x85, 0x34, 0x81, 0x2a,
  0xf1, 0xb7, 0xef, 0x33, 0x26, 0xbe, 0xcb, 0x32, 0x3c, 0xa8, 0x72, 0x30,
  0x37, 0x2e, 0x20, 0xb5, 0xd8, 0x34, 0xd4, 0xb7, 0x4e, 0xfb, 0xff, 0xff,
  0x04, 0x00, 0x00, 0x00, 0xc0, 0x03, 0x00, 0x00, 0x11, 0x45, 0xa5, 0x36,
  0x35, 0x38, 0xd2, 0xa7, 0x8b, 0x30, 0x16, 0xb0, 0x2c, 0xb6, 0x24, 0xb0,
  0xa8, 0x32, 0x05, 0xad, 0x44, 0x44, 0x53, 0xbf, 0x73, 0xa9, 0xde, 0xb6,
  0x8b, 0x33, 0x29, 0xb7, 0xb2, 0xb5, 0x70, 0x2e, 0x90, 0x2c, 0x09, 0xb1,
  0xbc, 0x3c, 0x62, 0xbd, 0xb8, 0xb0, 0x9a, 0x35, 0x3c, 0xb2, 0xee, 0xba,
  0x6e, 0xb3, 0xd6, 0xb5, 0xbe, 0xa9, 0x88, 0x30, 0xd2, 0xbd, 0x76, 0x36,
  0x8e, 0x2f, 0xd0, 0x2a, 0x7e, 0x36, 0x23, 0xb6, 0x66, 0x31, 0xe6, 0xac,
  0x87, 0x32, 0x6a, 0xb7, 0x3b, 0xc2, 0x29, 0xb5, 0x1b, 0x3c, 0xcc, 0x2e,
  0xc6, 0x2e, 0x9c, 0x31, 0x73, 0x26, 0x07, 0xb0, 0xa5, 0xb5, 0xfe, 0xb9,
  0x25, 0xc4, 0xb5, 0xbc, 0x66, 0x3c, 0x38, 0x31, 0x9d, 0x3a, 0x89, 0xb3,
  0x71, 0x34, 0xc2, 0xac, 0x43, 0x36, 0x14, 0xbb, 0xd7, 0xc2, 0xd5, 0xad,
  0xd4, 0xb5, 0xfd, 0xa9, 0x1a, 0xba, 0xdf, 0xbc, 0xbe, 0x36, 0x1a, 0x28,
  0xf5, 0x2e, 0x52, 0xb7, 0x98, 0xb9, 0x83, 0x39, 0xa9, 0x30, 0xfe, 0x29,
  0x3f, 0x3b, 0x5f, 0xba, 0xd4, 0x35, 0xff, 0xae, 0xc5, 0xac, 0x11, 0xb9,
  0x38, 0xbc, 0xf2, 0x38, 0x41, 0xb9, 0x85, 0x23, 0xfb, 0xb8, 0xa4, 0xb0,
  0x5a, 0x2f, 0x63, 0x2d, 0xf1, 0x22, 0xfe, 0xb7, 0x5a, 0xbc, 0x44, 0x3d,
  0x1b, 0x3b, 0xd2, 0xb9, 0x25, 0x35, 0x30, 0x29, 0x3a, 0x35, 0x40, 0x31,
  0xe9, 0x34, 0x25, 0x34, 0x58, 0xbd, 0x0a, 0xbb, 0x2c, 0x33, 0x04, 0xb9,
  0xb6, 0x31, 0x7e, 0xb3, 0x11, 0x36, 0x40, 0x35, 0x4b, 0x26, 0x47, 0x33,
  0x4b, 0xc3, 0x54, 0xbe, 0x56, 0x3c, 0x5a, 0x35, 0x88, 0x37, 0xc3, 0xb2,
  0x61, 0x36, 0x1e, 0x35, 0x2e, 0xb0, 0x11, 0xb2, 0x23, 0xbc, 0x59, 0xb9,
  0xe0, 0xbc, 0x4b, 0xaa, 0x62, 0x2d, 0x6a, 0x36, 0xe0, 0xa1, 0x15, 0x30,
  0x9b, 0xb8, 0x0f, 0x38, 0x52, 0x36, 0x5f, 0x3a, 0x39, 0xbe, 0x13, 0x2a,
  0xa2, 0xb6, 0x98, 0x31, 0xa7, 0x34, 0xe7, 0x29, 0x61, 0x1d, 0x6d, 0x38,
  0x4e, 0x3b, 0x26, 0x3a, 0x27, 0xb9, 0x57, 0xad, 0x1d, 0xbb, 0x2e, 0x9d,
  0x67, 0xb1, 0x24, 0x28, 0x84, 0xb7, 0x0e, 0x3b, 0xd0, 0x44, 0x15, 0x3e,
  0xed, 0x3a, 0x94, 0xb8, 0x35, 0xb1, 0x3b, 0xa4, 0x79, 0x2c, 0x82, 0x31,
  0x6f, 0xa7, 0x3f, 0xb3, 0x3b, 0x3d, 0x4e, 0xbc, 0x02, 0x3c, 0x06, 0xb5,
  0x5b, 0x2c, 0x70, 0xb7, 0x18, 0x30, 0x2a, 0x34, 0x8e, 0x29, 0x43, 0xa8,
  0x95, 0xc0, 0xbd, 0xbf, 0xd9, 0x39, 0x18, 0xa8, 0x0f, 0xa8, 0x28, 0xba,
  0x24, 0x32, 0xd4, 0x34, 0x25, 0xaf, 0x5d, 0xb5, 0x03, 0x3e, 0xca, 0x31,
  0xd0, 0xb2, 0xc1, 0xa0, 0xa3, 0xac, 0x1a, 0xb9, 0x90, 0x32, 0xe4, 0xae,
  0x50, 0xbc, 0x3b, 0xb9, 0xcc, 0x3f, 0xec, 0x37, 0x84, 0x36, 0x91, 0x2f,
  0xed, 0x37, 0x0d, 0xa4, 0x3b, 0x2c, 0xe2, 0x29, 0xe2, 0x36, 0x8f, 0xb7,
  0x41, 0xb6, 0x5c, 0x35, 0x32, 0xba, 0x97, 0xa9, 0x56, 0x3c, 0x9c, 0x24,
  0x0b, 0xb3, 0x74, 0x2f, 0x97, 0xbb, 0x3d, 0xb9, 0xee, 0x46, 0x6b, 0xb0,
  0x9d, 0xb7, 0xb1, 0xad, 0xed, 0x30, 0x3f, 0xba, 0x9d, 0x31, 0xae, 0xa7,
  0xed, 0xab, 0xf0, 0x39, 0x2e, 0x45, 0xe3, 0xc3, 0x3d, 0xb4, 0xd0, 0x36,
  0xb8, 0xab, 0x86, 0xbc, 0x5d, 0x2e, 0x4c, 0x32, 0x25, 0x28, 0x40, 0x3b,
  0x3b, 0x44, 0x55, 0xc0, 0x71, 0x36, 0x64, 0xb1, 0xeb, 0x39, 0x09, 0xbb,
  0xb6, 0x2d, 0xc3, 0xae, 0xfc, 0x27, 0x6d, 0x3b, 0xe8, 0xb9, 0x09, 0x36,
  0xc1, 0xa5, 0x63, 0x40, 0xdf, 0x1a, 0xa0, 0x33, 0x13, 0x31, 0xb3, 0x31,
  0xed, 0xae, 0xef, 0xb7, 0x4f, 0x3d, 0xeb, 0x3c, 0x83, 0x31, 0x1c, 0x39,
  0xdb, 0xab, 0x69, 0x2d, 0x7e, 0xad, 0xdc, 0x2a, 0xbb, 0x35, 0xfd, 0xb1,
  0xbb, 0xbe, 0x03, 0x3c, 0x79, 0xbd, 0xf1, 0x3b, 0xf7, 0x38, 0x5a, 0xb4,
  0x5f, 0x98, 0xb4, 0xb1, 0xab, 0xb6, 0x02, 0xb0, 0xd5, 0x3f, 0x21, 0x41,
  0x23, 0xb7, 0x88, 0x32, 0x22, 0x31, 0x6e, 0x39, 0x1f, 0x30, 0x97, 0xb2,
  0x44, 0x28, 0x19, 0x36, 0x63, 0x40, 0x36, 0x39, 0x6a, 0xb7, 0x71, 0xb4,
  0x09, 0xb1, 0x8a, 0x38, 0xfd, 0xb1, 0x07, 0x34, 0x95, 0x34, 0xe2, 0x39,
  0x28, 0x46, 0x33, 0xbb, 0xd5, 0x3c, 0xda, 0x33, 0x72, 0x35, 0x27, 0x3b,
  0x2f, 0x2c, 0x3b, 0xae, 0xc0, 0xa9, 0xe8, 0x38, 0x3e, 0xbd, 0x5f, 0xb4,
  0xe3, 0x1d, 0xc9, 0xc1, 0x23, 0xb8, 0xf7, 0xad, 0xc3, 0x33, 0xf3, 0xac,
  0xae, 0x9b, 0xa1, 0xba, 0xc1, 0x22, 0xc2, 0x39, 0xa6, 0x38, 0x43, 0xc0,
  0x18, 0x39, 0xab, 0x23, 0x9f, 0x99, 0xd2, 0xb0, 0x6e, 0x24, 0x0b, 0xbc,
  0x09, 0xbd, 0x73, 0x39, 0x3d, 0xb6, 0x62, 0xc0, 0xe7, 0xb2, 0x84, 0xab,
  0xaf, 0xb3, 0x2a, 0x33, 0x19, 0xa0, 0xaa, 0xbb, 0xb9, 0x44, 0x96, 0x40,
  0x9b, 0xac, 0xa0, 0x28, 0x19, 0x2e, 0xb1, 0xb6, 0x4c, 0xb5, 0xa0, 0x33,
  0x6c, 0x36, 0xa9, 0x35, 0x50, 0x44, 0xed, 0x3a, 0x58, 0x36, 0x0e, 0x30,
  0xce, 0xa9, 0x08, 0xb2, 0x0f, 0xb5, 0xd3, 0x32, 0xb6, 0xaf, 0x09, 0x38,
  0x60, 0x42, 0x2b, 0xbf, 0x92, 0xbc, 0x51, 0xa4, 0x2a, 0x2e, 0x98, 0x33,
  0x0c, 0xb4, 0x5f, 0x30, 0x59, 0x33, 0x83, 0x35, 0x0d, 0xc2, 0x27, 0x31,
  0x3f, 0x38, 0xc8, 0x34, 0xe7, 0x31, 0x65, 0xb9, 0xdb, 0x26, 0xce, 0x24,
  0x34, 0x39, 0x40, 0xb8, 0xb7, 0xc0, 0x4f, 0xb5, 0x94, 0x38, 0xeb, 0xb2,
  0xa0, 0xb2, 0x1b, 0x07, 0x7e, 0xb1, 0xba, 0x31, 0x99, 0xb2, 0x45, 0xbb,
  0x34, 0xc8, 0x32, 0xb0, 0x06, 0xb7, 0x49, 0xac, 0x4f, 0x2e, 0x8a, 0x38,
  0x97, 0x30, 0xe4, 0xb1, 0x1f, 0x34, 0xc7, 0xba, 0x66, 0x48, 0x95, 0xbc,
  0x7b, 0x32, 0x03, 0xb1, 0xe4, 0xa4, 0x09, 0xb9, 0xc0, 0x31, 0x5b, 0xb4,
  0x8c, 0x32, 0x99, 0x35, 0x71, 0x3d, 0x83, 0xbd, 0x95, 0x30, 0x82, 0x2c,
  0xa5, 0x31, 0x39, 0xad, 0xcf, 0x35, 0x1b, 0x29, 0x77, 0x32, 0xb0, 0x39,
  0x2b, 0xbb, 0x3b, 0xbc, 0xdd, 0x2d, 0xc5, 0x28, 0x09, 0x15, 0x06, 0xb0,
  0xeb, 0x35, 0x03, 0x28, 0xd1, 0x2c, 0xa9, 0x3a, 0x85, 0xc0, 0xa9, 0x39,
  0x8f, 0xab, 0x86, 0xac, 0x1d, 0x38, 0x07, 0xb9, 0x77, 0xb5, 0x8e, 0xb4,
  0x69, 0x31, 0x34, 0x3c, 0x59, 0xbe, 0x07, 0xbe, 0x62, 0xb5, 0x23, 0xb8,
  0x94, 0x30, 0x3f, 0xb4, 0x56, 0xb4, 0x1b, 0xb4, 0x3c, 0xb1, 0x0a, 0x3d,
  0x81, 0xc0, 0xea, 0xbf, 0x07, 0x3a, 0xe2, 0xb5, 0xc8, 0x32, 0x87, 0xb3,
  0x5a, 0xaa, 0x23, 0xb0, 0x25, 0xab, 0x1b, 0x3d, 0x0a, 0x38, 0x74, 0xbc,
  0xf4, 0x3c, 0xdb, 0x33, 0x3f, 0x34, 0xde, 0xbc, 0x49, 0xb5, 0x22, 0x2f,
  0x9b, 0x27, 0xe2, 0x37, 0x36, 0x3a, 0x11, 0x3b, 0xdd, 0x37, 0x27, 0xa1,
  0x4e, 0x30, 0x67, 0xba, 0x48, 0xb3, 0x88, 0x35, 0x41, 0x20, 0x6f, 0x34,
  0xef, 0x3d, 0xc0, 0x39, 0xd7, 0x2a, 0xcd, 0xae, 0x54, 0x30, 0x3a, 0xba,
  0xfb, 0xac, 0x41, 0x34, 0x79, 0x33, 0xcd, 0x37, 0x1a, 0xff, 0xff, 0xff,
  0x04, 0x00, 0x00, 0x00, 0x10, 0x00, 0x00, 0x00, 0x6f, 0x39, 0xb6, 0xc1,
  0x14, 0xb5, 0xc0, 0xbe, 0xb0, 0x41, 0x49, 0xb6, 0x59, 0x38, 0xb5, 0xbd,
  0x36, 0xff, 0xff, 0xff, 0x04, 0x00, 0x00, 0x00, 0x80, 0x00, 0x00, 0x00,
  0xf0, 0x2b, 0xa8, 0x9b, 0x26, 0x3d, 0x50, 0x37, 0x9a, 0x3b, 0xb8, 0xac,
  0xd9, 0xb8, 0x36, 0x31, 0x27, 0xb2, 0x43, 0x2a, 0x69, 0x35, 0x4a, 0xbb,
  0xdc, 0xb8, 0x4b, 0xbc, 0x21, 0xb7, 0xa7, 0xb9, 0xe4, 0x38, 0x9f, 0x2b,
  0x95, 0x33, 0x04, 0xb5, 0x51, 0xb4, 0x8b, 0xa9, 0xae, 0xae, 0xb1, 0x32,
  0x27, 0xc0, 0x46, 0x3d, 0xbb, 0xbd, 0x0d, 0xb1, 0x93, 0xbd, 0xa1, 0xb8,
  0xc6, 0x32, 0xa4, 0x39, 0xc7, 0xa7, 0xa1, 0xb7, 0x53, 0x37, 0x54, 0x38,
  0xf5, 0x38, 0xd9, 0xbc, 0x73, 0xbc, 0x68, 0xb8, 0xbd, 0x2d, 0xf5, 0x3a,
  0xd4, 0xb7, 0xe9, 0x34, 0x92, 0xbf, 0xc3, 0xb0, 0x8e, 0x34, 0xab, 0x3c,
  0x65, 0x36, 0xdd, 0xb4, 0xe8, 0xb8, 0x8e, 0x34, 0xa6, 0x39, 0xd1, 0xb7,
  0x4b, 0x38, 0x7d, 0x30, 0x30, 0x95, 0x6d, 0xb0, 0x0c, 0xb2, 0xe7, 0xb3,
  0x6a, 0xc0, 0xf5, 0xba, 0x7d, 0xb2, 0x0d, 0x3a, 0xc2, 0xff, 0xff, 0xff,
  0x04, 0x00, 0x00, 0x00, 0x10, 0x00, 0x00, 0x00, 0xe9, 0xad, 0x0d, 0x3b,
  0x6e, 0x34, 0x31, 0x38, 0x93, 0x3d, 0x33, 0x3c, 0x53, 0xb9, 0x0e, 0x36,
  0xde, 0xff, 0xff, 0xff, 0x04, 0x00, 0x00, 0x00, 0x02, 0x00, 0x00, 0x00,
  0xd2, 0xba, 0x00, 0x00, 0xee, 0xff, 0xff, 0xff, 0x04, 0x00, 0x00, 0x00,
  0x04, 0x00, 0x00, 0x00, 0x01, 0x00, 0x00, 0x00, 0x00, 0x00, 0x06, 0x00,
  0x08, 0x00, 0x04, 0x00, 0x06, 0x00, 0x00, 0x00, 0x04, 0x00, 0x00, 0x00,
  0x04, 0x00, 0x00, 0x00, 0xfd, 0xff, 0xff, 0xff, 0xbc, 0xf0, 0xff, 0xff,
  0xc0, 0xf0, 0xff, 0xff, 0x0f, 0x00, 0x00, 0x00, 0x4d, 0x4c, 0x49, 0x52,
  0x20, 0x43, 0x6f, 0x6e, 0x76, 0x65, 0x72, 0x74, 0x65, 0x64, 0x2e, 0x00,
  0x01, 0x00, 0x00, 0x00, 0x14, 0x00, 0x00, 0x00, 0x00, 0x00, 0x0e, 0x00,
  0x18, 0x00, 0x14, 0x00, 0x10, 0x00, 0x0c, 0x00, 0x08, 0x00, 0x04, 0x00,
  0x0e, 0x00, 0x00, 0x00, 0x14, 0x00, 0x00, 0x00, 0x1c, 0x00, 0x00, 0x00,
  0x6c, 0x03, 0x00, 0x00, 0x70, 0x03, 0x00, 0x00, 0x74, 0x03, 0x00, 0x00,
  0x04, 0x00, 0x00, 0x00, 0x6d, 0x61, 0x69, 0x6e, 0x00, 0x00, 0x00, 0x00,
  0x12, 0x00, 0x00, 0x00, 0x34, 0x03, 0x00, 0x00, 0x08, 0x03, 0x00, 0x00,
  0xe8, 0x02, 0x00, 0x00, 0xc8, 0x02, 0x00, 0x00, 0xa8, 0x02, 0x00, 0x00,
  0x88, 0x02, 0x00, 0x00, 0x68, 0x02, 0x00, 0x00, 0x48, 0x02, 0x00, 0x00,
  0x14, 0x02, 0x00, 0x00, 0xb0, 0x01, 0x00, 0x00, 0x88, 0x01, 0x00, 0x00,
  0x48, 0x01, 0x00, 0x00, 0x00, 0x01, 0x00, 0x00, 0xd8, 0x00, 0x00, 0x00,
  0xa4, 0x00, 0x00, 0x00, 0x60, 0x00, 0x00, 0x00, 0x28, 0x00, 0x00, 0x00,
  0x04, 0x00, 0x00, 0x00, 0xa2, 0xfe, 0xff, 0xff, 0x0c, 0x00, 0x00, 0x00,
  0x10, 0x00, 0x00, 0x00, 0x06, 0x00, 0x00, 0x00, 0x01, 0x00, 0x00, 0x00,
  0x1e, 0x00, 0x00, 0x00, 0x01, 0x00, 0x00, 0x00, 0x1d, 0x00, 0x00, 0x00,
  0x42, 0xfe, 0xff, 0xff, 0x14, 0x00, 0x00, 0x00, 0x00, 0x00, 0x00, 0x08,
  0x10, 0x00, 0x00, 0x00, 0x14, 0x00, 0x00, 0x00, 0x05, 0x00, 0x00, 0x00,
  0x98, 0xf1, 0xff, 0xff, 0x01, 0x00, 0x00, 0x00, 0x1d, 0x00, 0x00, 0x00,
  0x03, 0x00, 0x00, 0x00, 0x1c, 0x00, 0x00, 0x00, 0x11, 0x00, 0x00, 0x00,
  0x14, 0x00, 0x00, 0x00, 0x76, 0xfe, 0xff, 0xff, 0x1c, 0x00, 0x00, 0x00,
  0x00, 0x00, 0x00, 0x08, 0x1c, 0x00, 0x00, 0x00, 0x20, 0x00, 0x00, 0x00,
  0x05, 0x00, 0x00, 0x00, 0x00, 0x00, 0x06, 0x00, 0x08, 0x00, 0x07, 0x00,
  0x06, 0x00, 0x00, 0x00, 0x00, 0x00, 0x00, 0x01, 0x01, 0x00, 0x00, 0x00,
  0x1c, 0x00, 0x00, 0x00, 0x03, 0x00, 0x00, 0x00, 0x1b, 0x00, 0x00, 0x00,
  0x12, 0x00, 0x00, 0x00, 0x13, 0x00, 0x00, 0x00, 0xb6, 0xfe, 0xff, 0xff,
  0x14, 0x00, 0x00, 0x00, 0x00, 0x00, 0x00, 0x1b, 0x10, 0x00, 0x00, 0x00,
  0x14, 0x00, 0x00, 0x00, 0x04, 0x00, 0x00, 0x00, 0x0c, 0xf2, 0xff, 0xff,
  0x01, 0x00, 0x00, 0x00, 0x1b, 0x00, 0x00, 0x00, 0x02, 0x00, 0x00, 0x00,
  0x1a, 0x00, 0x00, 0x00, 0x02, 0x00, 0x00, 0x00, 0x66, 0xff, 0xff, 0xff,
  0x0c, 0x00, 0x00, 0x00, 0x10, 0x00, 0x00, 0x00, 0x03, 0x00, 0x00, 0x00,
  0x01, 0x00, 0x00, 0x00, 0x1a, 0x00, 0x00, 0x00, 0x02, 0x00, 0x00, 0x00,
  0x19, 0x00, 0x00, 0x00, 0x0a, 0x00, 0x00, 0x00, 0x0a, 0xff, 0xff, 0xff,
  0x14, 0x00, 0x00, 0x00, 0x00, 0x00, 0x00, 0x01, 0x20, 0x00, 0x00, 0x00,
  0x24, 0x00, 0x00, 0x00, 0x02, 0x00, 0x00, 0x00, 0x5c, 0xff, 0xff, 0xff,
  0x00, 0x00, 0x00, 0x01, 0x01, 0x00, 0x00, 0x00, 0x01, 0x00, 0x00, 0x00,
  0x00, 0x00, 0x00, 0x01, 0x01, 0x00, 0x00, 0x00, 0x19, 0x00, 0x00, 0x00,
  0x03, 0x00, 0x00, 0x00, 0x18, 0x00, 0x00, 0x00, 0x0f, 0x00, 0x00, 0x00,
  0x0d, 0x00, 0x00, 0x00, 0x4e, 0xff, 0xff, 0xff, 0x14, 0x00, 0x00, 0x00,
  0x00, 0x00, 0x00, 0x34, 0x10, 0x00, 0x00, 0x00, 0x14, 0x00, 0x00, 0x00,
  0x01, 0x00, 0x00, 0x00, 0xa4, 0xf2, 0xff, 0xff, 0x01, 0x00, 0x00, 0x00,
  0x18, 0x00, 0x00, 0x00, 0x02, 0x00, 0x00, 0x00, 0x17, 0x00, 0x00, 0x00,
  0x01, 0x00, 0x00, 0x00, 0x00, 0x00, 0x0a, 0x00, 0x10, 0x00, 0x0c, 0x00,
  0x08, 0x00, 0x04, 0x00, 0x0a, 0x00, 0x00, 0x00, 0x0c, 0x00, 0x00, 0x00,
  0x10, 0x00, 0x00, 0x00, 0x03, 0x00, 0x00, 0x00, 0x01, 0x00, 0x00, 0x00,
  0x17, 0x00, 0x00, 0x00, 0x02, 0x00, 0x00, 0x00, 0x16, 0x00, 0x00, 0x00,
  0x09, 0x00, 0x00, 0x00, 0xae, 0xff, 0xff, 0xff, 0x20, 0x00, 0x00, 0x00,
  0x00, 0x00, 0x00, 0x01, 0x2c, 0x00, 0x00, 0x00, 0x30, 0x00, 0x00, 0x00,
  0x02, 0x00, 0x00, 0x00, 0x0c, 0x00, 0x14, 0x00, 0x13, 0x00, 0x0c, 0x00,
  0x08, 0x00, 0x07, 0x00, 0x0c, 0x00, 0x00, 0x00, 0x00, 0x00, 0x00, 0x01,
  0x01, 0x00, 0x00, 0x00, 0x01, 0x00, 0x00, 0x00, 0x00, 0x00, 0x00, 0x01,
  0x01, 0x00, 0x00, 0x00, 0x16, 0x00, 0x00, 0x00, 0x03, 0x00, 0x00, 0x00,
  0x15, 0x00, 0x00, 0x00, 0x10, 0x00, 0x00, 0x00, 0x0e, 0x00, 0x00, 0x00,
  0x00, 0x00, 0x0e, 0x00, 0x18, 0x00, 0x14, 0x00, 0x10, 0x00, 0x0c, 0x00,
  0x0b, 0x00, 0x04, 0x00, 0x0e, 0x00, 0x00, 0x00, 0x14, 0x00, 0x00, 0x00,
  0x00, 0x00, 0x00, 0x34, 0x10, 0x00, 0x00, 0x00, 0x14, 0x00, 0x00, 0x00,
  0x01, 0x00, 0x00, 0x00, 0x64, 0xf3, 0xff, 0xff, 0x01, 0x00, 0x00, 0x00,
  0x15, 0x00, 0x00, 0x00, 0x02, 0x00, 0x00, 0x00, 0x00, 0x00, 0x00, 0x00,
  0x01, 0x00, 0x00, 0x00, 0x3a, 0xff, 0xff, 0xff, 0x08, 0x00, 0x00, 0x00,
  0x0c, 0x00, 0x00, 0x00, 0x01, 0x00, 0x00, 0x00, 0x14, 0x00, 0x00, 0x00,
  0x01, 0x00, 0x00, 0x00, 0x03, 0x00, 0x00, 0x00, 0x56, 0xff, 0xff, 0xff,
  0x08, 0x00, 0x00, 0x00, 0x0c, 0x00, 0x00, 0x00, 0x01, 0x00, 0x00, 0x00,
  0x13, 0x00, 0x00, 0x00, 0x01, 0x00, 0x00, 0x00, 0x04, 0x00, 0x00, 0x00,
  0x72, 0xff, 0xff, 0xff, 0x08, 0x00, 0x00, 0x00, 0x0c, 0x00, 0x00, 0x00,
  0x01, 0x00, 0x00, 0x00, 0x12, 0x00, 0x00, 0x00, 0x01, 0x00, 0x00, 0x00,
  0x05, 0x00, 0x00, 0x00, 0x8e, 0xff, 0xff, 0xff, 0x08, 0x00, 0x00, 0x00,
  0x0c, 0x00, 0x00, 0x00, 0x01, 0x00, 0x00, 0x00, 0x11, 0x00, 0x00, 0x00,
  0x01, 0x00, 0x00, 0x00, 0x06, 0x00, 0x00, 0x00, 0xaa, 0xff, 0xff, 0xff,
  0x08, 0x00, 0x00, 0x00, 0x0c, 0x00, 0x00, 0x00, 0x01, 0x00, 0x00, 0x00,
  0x10, 0x00, 0x00, 0x00, 0x01, 0x00, 0x00, 0x00, 0x07, 0x00, 0x00, 0x00,
  0xc6, 0xff, 0xff, 0xff, 0x08, 0x00, 0x00, 0x00, 0x0c, 0x00, 0x00, 0x00,
  0x01, 0x00, 0x00, 0x00, 0x0f, 0x00, 0x00, 0x00, 0x01, 0x00, 0x00, 0x00,
  0x08, 0x00, 0x00, 0x00, 0xe2, 0xff, 0xff, 0xff, 0x08, 0x00, 0x00, 0x00,
  0x0c, 0x00, 0x00, 0x00, 0x01, 0x00, 0x00, 0x00, 0x0e, 0x00, 0x00, 0x00,
  0x01, 0x00, 0x00, 0x00, 0x0b, 0x00, 0x00, 0x00, 0x00, 0x00, 0x0a, 0x00,
  0x0c, 0x00, 0x00, 0x00, 0x08, 0x00, 0x04, 0x00, 0x0a, 0x00, 0x00, 0x00,
  0x08, 0x00, 0x00, 0x00, 0x0c, 0x00, 0x00, 0x00, 0x01, 0x00, 0x00, 0x00,
  0x0d, 0x00, 0x00, 0x00, 0x01, 0x00, 0x00, 0x00, 0x0c, 0x00, 0x00, 0x00,
  0x01, 0x00, 0x00, 0x00, 0x1e, 0x00, 0x00, 0x00, 0x01, 0x00, 0x00, 0x00,
  0x00, 0x00, 0x00, 0x00, 0x1f, 0x00, 0x00, 0x00, 0x58, 0x0b, 0x00, 0x00,
  0x04, 0x0b, 0x00, 0x00, 0xb0, 0x0a, 0x00, 0x00, 0x70, 0x0a, 0x00, 0x00,
  0x30, 0x0a, 0x00, 0x00, 0xec, 0x09, 0x00, 0x00, 0xa8, 0x09, 0x00, 0x00,
  0x5c, 0x09, 0x00, 0x00, 0x10, 0x09, 0x00, 0x00, 0xd0, 0x08, 0x00, 0x00,
  0x90, 0x08, 0x00, 0x00, 0x4c, 0x08, 0x00, 0x00, 0x08, 0x08, 0x00, 0x00,
  0xcc, 0x07, 0x00, 0x00, 0x78, 0x07, 0x00, 0x00, 0x30, 0x07, 0x00, 0x00,
  0xe8, 0x06, 0x00, 0x00, 0xa8, 0x06, 0x00, 0x00, 0x68, 0x06, 0x00, 0x00,
  0x2c, 0x06, 0x00, 0x00, 0xf0, 0x05, 0x00, 0x00, 0x70, 0x05, 0x00, 0x00,
  0x98, 0x04, 0x00, 0x00, 0xec, 0x03, 0x00, 0x00, 0x6c, 0x03, 0x00, 0x00,
  0x8c, 0x02, 0x00, 0x00, 0xd8, 0x01, 0x00, 0x00, 0x70, 0x01, 0x00, 0x00,
  0xdc, 0x00, 0x00, 0x00, 0x60, 0x00, 0x00, 0x00, 0x04, 0x00, 0x00, 0x00,
  0x3a, 0xf5, 0xff, 0xff, 0x00, 0x00, 0x00, 0x01, 0x14, 0x00, 0x00, 0x00,
  0x1c, 0x00, 0x00, 0x00, 0x1c, 0x00, 0x00, 0x00, 0x1f, 0x00, 0x00, 0x00,
  0x34, 0x00, 0x00, 0x00, 0x02, 0x00, 0x00, 0x00, 0xff, 0xff, 0xff, 0xff,
  0x01, 0x00, 0x00, 0x00, 0x20, 0xf5, 0xff, 0xff, 0x1b, 0x00, 0x00, 0x00,
  0x53, 0x74, 0x61, 0x74, 0x65, 0x66, 0x75, 0x6c, 0x50, 0x61, 0x72, 0x74,
  0x69, 0x74, 0x69, 0x6f, 0x6e, 0x65, 0x64, 0x43, 0x61, 0x6c, 0x6c, 0x5f,
  0x31, 0x3a, 0x30, 0x00, 0x02, 0x00, 0x00, 0x00, 0x01, 0x00, 0x00, 0x00,
  0x01, 0x00, 0x00, 0x00, 0x92, 0xf5, 0xff, 0xff, 0x00, 0x00, 0x00, 0x01,
  0x14, 0x00, 0x00, 0x00, 0x1c, 0x00, 0x00, 0x00, 0x1c, 0x00, 0x00, 0x00,
  0x1e, 0x00, 0x00, 0x00, 0x54, 0x00, 0x00, 0x00, 0x02, 0x00, 0x00, 0x00,
  0xff, 0xff, 0xff, 0xff, 0x01, 0x00, 0x00, 0x00, 0x78, 0xf5, 0xff, 0xff,
  0x38, 0x00, 0x00, 0x00, 0x73, 0x65, 0x71, 0x75, 0x65, 0x6e, 0x74, 0x69,
  0x61, 0x6c, 0x5f, 0x31, 0x2f, 0x64, 0x65, 0x6e, 0x73, 0x65, 0x5f, 0x31,
  0x5f, 0x32, 0x2f, 0x4d, 0x61, 0x74, 0x4d, 0x75, 0x6c, 0x3b, 0x73, 0x65,
  0x71, 0x75, 0x65, 0x6e, 0x74, 0x69, 0x61, 0x6c, 0x5f, 0x31, 0x2f, 0x64,
  0x65, 0x6e, 0x73, 0x65, 0x5f, 0x31, 0x5f, 0x32, 0x2f, 0x41, 0x64, 0x64,
  0x00, 0x00, 0x00, 0x00, 0x02, 0x00, 0x00, 0x00, 0x01, 0x00, 0x00, 0x00,
  0x01, 0x00, 0x00, 0x00, 0x0a, 0xf6, 0xff, 0xff, 0x00, 0x00, 0x00, 0x01,
  0x14, 0x00, 0x00, 0x00, 0x1c, 0x00, 0x00, 0x00, 0x1c, 0x00, 0x00, 0x00,
  0x1d, 0x00, 0x00, 0x00, 0x6c, 0x00, 0x00, 0x00, 0x02, 0x00, 0x00, 0x00,
  0xff, 0xff, 0xff, 0xff, 0x08, 0x00, 0x00, 0x00, 0xf0, 0xf5, 0xff, 0xff,
  0x52, 0x00, 0x00, 0x00, 0x73, 0x65, 0x71, 0x75, 0x65, 0x6e, 0x74, 0x69,
  0x61, 0x6c, 0x5f, 0x31, 0x2f, 0x64, 0x65, 0x6e, 0x73, 0x65, 0x5f, 0x31,
  0x2f, 0x4d, 0x61, 0x74, 0x4d, 0x75, 0x6c, 0x3b, 0x73, 0x65, 0x71, 0x75,
  0x65, 0x6e, 0x74, 0x69, 0x61, 0x6c, 0x5f, 0x31, 0x2f, 0x64, 0x65, 0x6e,
  0x73, 0x65, 0x5f, 0x31, 0x2f, 0x52, 0x65, 0x6c, 0x75, 0x3b, 0x73, 0x65,
  0x71, 0x75, 0x65, 0x6e, 0x74, 0x69, 0x61, 0x6c, 0x5f, 0x31, 0x2f, 0x64,
  0x65, 0x6e, 0x73, 0x65, 0x5f, 0x31, 0x2f, 0x42, 0x69, 0x61, 0x73, 0x41,
  0x64, 0x64, 0x00, 0x00, 0x02, 0x00, 0x00, 0x00, 0x01, 0x00, 0x00, 0x00,
  0x08, 0x00, 0x00, 0x00, 0x9a, 0xf6, 0xff, 0xff, 0x00, 0x00, 0x00, 0x01,
  0x14, 0x00, 0x00, 0x00, 0x1c, 0x00, 0x00, 0x00, 0x1c, 0x00, 0x00, 0x00,
  0x1c, 0x00, 0x00, 0x00, 0x40, 0x00, 0x00, 0x00, 0x02, 0x00, 0x00, 0x00,
  0xff, 0xff, 0xff, 0xff, 0x08, 0x00, 0x00, 0x00, 0x80, 0xf6, 0xff, 0xff,
  0x27, 0x00, 0x00, 0x00, 0x73, 0x65, 0x71, 0x75, 0x65, 0x6e, 0x74, 0x69,
  0x61, 0x6c, 0x5f, 0x31, 0x2f, 0x67, 0x6c, 0x6f, 0x62, 0x61, 0x6c, 0x5f,
  0x6d, 0x61, 0x78, 0x5f, 0x70, 0x6f, 0x6f, 0x6c, 0x69, 0x6e, 0x67, 0x31,
  0x64, 0x5f, 0x31, 0x2f, 0x4d, 0x61, 0x78, 0x00, 0x02, 0x00, 0x00, 0x00,
  0x01, 0x00, 0x00, 0x00, 0x08, 0x00, 0x00, 0x00, 0xfe, 0xf6, 0xff, 0xff,
  0x00, 0x00, 0x00, 0x01, 0x14, 0x00, 0x00, 0x00, 0x20, 0x00, 0x00, 0x00,
  0x20, 0x00, 0x00, 0x00, 0x1b, 0x00, 0x00, 0x00, 0x88, 0x00, 0x00, 0x00,
  0x03, 0x00, 0x00, 0x00, 0xff, 0xff, 0xff, 0xff, 0x06, 0x00, 0x00, 0x00,
  0x08, 0x00, 0x00, 0x00, 0xe8, 0xf6, 0xff, 0xff, 0x69, 0x00, 0x00, 0x00,
  0x73, 0x65, 0x71, 0x75, 0x65, 0x6e, 0x74, 0x69, 0x61, 0x6c, 0x5f, 0x31,
  0x2f, 0x63, 0x6f, 0x6e, 0x76, 0x31, 0x64, 0x5f, 0x31, 0x5f, 0x32, 0x2f,
  0x52, 0x65, 0x6c, 0x75, 0x3b, 0x73, 0x65, 0x71, 0x75, 0x65, 0x6e, 0x74,
  0x69, 0x61, 0x6c, 0x5f, 0x31, 0x2f, 0x63, 0x6f, 0x6e, 0x76, 0x31, 0x64,
  0x5f, 0x31, 0x5f, 0x32, 0x2f, 0x42, 0x69, 0x61, 0x73, 0x41, 0x64, 0x64,
  0x3b, 0x73, 0x65, 0x71, 0x75, 0x65, 0x6e, 0x74, 0x69, 0x61, 0x6c, 0x5f,
  0x31, 0x2f, 0x63, 0x6f, 0x6e, 0x76, 0x31, 0x64, 0x5f, 0x31, 0x5f, 0x32,
  0x2f, 0x63, 0x6f, 0x6e, 0x76, 0x6f, 0x6c, 0x75, 0x74, 0x69, 0x6f, 0x6e,
  0x2f, 0x53, 0x71, 0x75, 0x65, 0x65, 0x7a, 0x65, 0x3b, 0x00, 0x00, 0x00,
  0x03, 0x00, 0x00, 0x00, 0x01, 0x00, 0x00, 0x00, 0x06, 0x00, 0x00, 0x00,
  0x08, 0x00, 0x00, 0x00, 0xae, 0xf7, 0xff, 0xff, 0x00, 0x00, 0x00, 0x01,
  0x14, 0x00, 0x00, 0x00, 0x24, 0x00, 0x00, 0x00, 0x24, 0x00, 0x00, 0x00,
  0x1a, 0x00, 0x00, 0x00, 0xb0, 0x00, 0x00, 0x00, 0x04, 0x00, 0x00, 0x00,
  0xff, 0xff, 0xff, 0xff, 0x01, 0x00, 0x00, 0x00, 0x06, 0x00, 0x00, 0x00,
  0x08, 0x00, 0x00, 0x00, 0x9c, 0xf7, 0xff, 0xff, 0x8d, 0x00, 0x00, 0x00,
  0x73, 0x65, 0x71, 0x75, 0x65, 0x6e, 0x74, 0x69, 0x61, 0x6c, 0x5f, 0x31,
  0x2f, 0x63, 0x6f, 0x6e, 0x76, 0x31, 0x64, 0x5f, 0x31, 0x5f, 0x32, 0x2f,
  0x52, 0x65, 0x6c, 0x75, 0x3b, 0x73, 0x65, 0x71, 0x75, 0x65, 0x6e, 0x74,
  0x69, 0x61, 0x6c, 0x5f, 0x31, 0x2f, 0x63, 0x6f, 0x6e, 0x76, 0x31, 0x64,
  0x5f, 0x31, 0x5f, 0x32, 0x2f, 0x42, 0x69, 0x61, 0x73, 0x41, 0x64, 0x64,
  0x3b, 0x73, 0x65, 0x71, 0x75, 0x65, 0x6e, 0x74, 0x69, 0x61, 0x6c, 0x5f,
  0x31, 0x2f, 0x63, 0x6f, 0x6e, 0x76, 0x31, 0x64, 0x5f, 0x31, 0x5f, 0x32,
  0x2f, 0x63, 0x6f, 0x6e, 0x76, 0x6f, 0x6c, 0x75, 0x74, 0x69, 0x6f, 0x6e,
  0x2f, 0x53, 0x71, 0x75, 0x65, 0x65, 0x7a, 0x65, 0x3b, 0x3b, 0x73, 0x65,
  0x71, 0x75, 0x65, 0x6e, 0x74, 0x69, 0x61, 0x6c, 0x5f, 0x31, 0x2f, 0x63,
  0x6f, 0x6e, 0x76, 0x31, 0x64, 0x5f, 0x31, 0x5f, 0x32, 0x2f, 0x63, 0x6f,
  0x6e, 0x76, 0x6f, 0x6c, 0x75, 0x74, 0x69, 0x6f, 0x6e, 0x00, 0x00, 0x00,
  0x04, 0x00, 0x00, 0x00, 0x01, 0x00, 0x00, 0x00, 0x01, 0x00, 0x00, 0x00,
  0x06, 0x00, 0x00, 0x00, 0x08, 0x00, 0x00, 0x00, 0x8a, 0xf8, 0xff, 0xff,
  0x00, 0x00, 0x00, 0x01, 0x14, 0x00, 0x00, 0x00, 0x24, 0x00, 0x00, 0x00,
  0x24, 0x00, 0x00, 0x00, 0x19, 0x00, 0x00, 0x00, 0x50, 0x00, 0x00, 0x00,
  0x04, 0x00, 0x00, 0x00, 0xff, 0xff, 0xff, 0xff, 0x01, 0x00, 0x00, 0x00,
  0x08, 0x00, 0x00, 0x00, 0x10, 0x00, 0x00, 0x00, 0x78, 0xf8, 0xff, 0xff,
  0x2e, 0x00, 0x00, 0x00, 0x73, 0x65, 0x71, 0x75, 0x65, 0x6e, 0x74, 0x69,
  0x61, 0x6c, 0x5f, 0x31, 0x2f, 0x63, 0x6f, 0x6e, 0x76, 0x31, 0x64, 0x5f,
  0x31, 0x5f, 0x32, 0x2f, 0x63, 0x6f, 0x6e, 0x76, 0x6f, 0x6c, 0x75, 0x74,
  0x69, 0x6f, 0x6e, 0x2f, 0x45, 0x78, 0x70, 0x61, 0x6e, 0x64, 0x44, 0x69,
  0x6d, 0x73, 0x00, 0x00, 0x04, 0x00, 0x00, 0x00, 0x01, 0x00, 0x00, 0x00,
  0x01, 0x00, 0x00, 0x00, 0x08, 0x00, 0x00, 0x00, 0x10, 0x00, 0x00, 0x00,
  0x06, 0xf9, 0xff, 0xff, 0x00, 0x00, 0x00, 0x01, 0x14, 0x00, 0x00, 0x00,
  0x20, 0x00, 0x00, 0x00, 0x20, 0x00, 0x00, 0x00, 0x18, 0x00, 0x00, 0x00,
  0x80, 0x00, 0x00, 0x00, 0x03, 0x00, 0x00, 0x00, 0xff, 0xff, 0xff, 0xff,
  0x08, 0x00, 0x00, 0x00, 0x10, 0x00, 0x00, 0x00, 0xf0, 0xf8, 0xff, 0xff,
  0x63, 0x00, 0x00, 0x00, 0x73, 0x65, 0x71, 0x75, 0x65, 0x6e, 0x74, 0x69,
  0x61, 0x6c, 0x5f, 0x31, 0x2f, 0x63, 0x6f, 0x6e, 0x76, 0x31, 0x64, 0x5f,
  0x31, 0x2f, 0x52, 0x65, 0x6c, 0x75, 0x3b, 0x73, 0x65, 0x71, 0x75, 0x65,
  0x6e, 0x74, 0x69, 0x61, 0x6c, 0x5f, 0x31, 0x2f, 0x63, 0x6f, 0x6e, 0x76,
  0x31, 0x64, 0x5f, 0x31, 0x2f, 0x42, 0x69, 0x61, 0x73, 0x41, 0x64, 0x64,
  0x3b, 0x73, 0x65, 0x71, 0x75, 0x65, 0x6e, 0x74, 0x69, 0x61, 0x6c, 0x5f,
  0x31, 0x2f, 0x63, 0x6f, 0x6e, 0x76, 0x31, 0x64, 0x5f, 0x31, 0x2f, 0x63,
  0x6f, 0x6e, 0x76, 0x6f, 0x6c, 0x75, 0x74, 0x69, 0x6f, 0x6e, 0x2f, 0x53,
  0x71, 0x75, 0x65, 0x65, 0x7a, 0x65, 0x3b, 0x00, 0x03, 0x00, 0x00, 0x00,
  0x01, 0x00, 0x00, 0x00, 0x08, 0x00, 0x00, 0x00, 0x10, 0x00, 0x00, 0x00,
  0xae, 0xf9, 0xff, 0xff, 0x00, 0x00, 0x00, 0x01, 0x14, 0x00, 0x00, 0x00,
  0x24, 0x00, 0x00, 0x00, 0x24, 0x00, 0x00, 0x00, 0x17, 0x00, 0x00, 0x00,
  0xa8, 0x00, 0x00, 0x00, 0x04, 0x00, 0x00, 0x00, 0xff, 0xff, 0xff, 0xff,
  0x01, 0x00, 0x00, 0x00, 0x08, 0x00, 0x00, 0x00, 0x10, 0x00, 0x00, 0x00,
  0x9c, 0xf9, 0xff, 0xff, 0x85, 0x00, 0x00, 0x00, 0x73, 0x65, 0x71, 0x75,
  0x65, 0x6e, 0x74, 0x69, 0x61, 0x6c, 0x5f, 0x31, 0x2f, 0x63, 0x6f, 0x6e,
  0x76, 0x31, 0x64, 0x5f, 0x31, 0x2f, 0x52, 0x65, 0x6c, 0x75, 0x3b, 0x73,
  0x65, 0x71, 0x75, 0x65, 0x6e, 0x74, 0x69, 0x61, 0x6c, 0x5f, 0x31, 0x2f,
  0x63, 0x6f, 0x6e, 0x76, 0x31, 0x64, 0x5f, 0x31, 0x2f, 0x42, 0x69, 0x61,
  0x73, 0x41, 0x64, 0x64, 0x3b, 0x73, 0x65, 0x71, 0x75, 0x65, 0x6e, 0x74,
  0x69, 0x61, 0x6c, 0x5f, 0x31, 0x2f, 0x63, 0x6f, 0x6e, 0x76, 0x31, 0x64,
  0x5f, 0x31, 0x2f, 0x63, 0x6f, 0x6e, 0x76, 0x6f, 0x6c, 0x75, 0x74, 0x69,
  0x6f, 0x6e, 0x2f, 0x53, 0x71, 0x75, 0x65, 0x65, 0x7a, 0x65, 0x3b, 0x3b,
  0x73, 0x65, 0x71, 0x75, 0x65, 0x6e, 0x74, 0x69, 0x61, 0x6c, 0x5f, 0x31,
  0x2f, 0x63, 0x6f, 0x6e, 0x76, 0x31, 0x64, 0x5f, 0x31, 0x2f, 0x63, 0x6f,
  0x6e, 0x76, 0x6f, 0x6c, 0x75, 0x74, 0x69, 0x6f, 0x6e, 0x00, 0x00, 0x00,
  0x04, 0x00, 0x00, 0x00, 0x01, 0x00, 0x00, 0x00, 0x01, 0x00, 0x00, 0x00,
  0x08, 0x00, 0x00, 0x00, 0x10, 0x00, 0x00, 0x00, 0x82, 0xfa, 0xff, 0xff,
  0x00, 0x00, 0x00, 0x01, 0x14, 0x00, 0x00, 0x00, 0x24, 0x00, 0x00, 0x00,
  0x24, 0x00, 0x00, 0x00, 0x16, 0x00, 0x00, 0x00, 0x50, 0x00, 0x00, 0x00,
  0x04, 0x00, 0x00, 0x00, 0xff, 0xff, 0xff, 0xff, 0x01, 0x00, 0x00, 0x00,
  0x0a, 0x00, 0x00, 0x00, 0x0a, 0x00, 0x00, 0x00, 0x70, 0xfa, 0xff, 0xff,
  0x2c, 0x00, 0x00, 0x00, 0x73, 0x65, 0x71, 0x75, 0x65, 0x6e, 0x74, 0x69,
  0x61, 0x6c, 0x5f, 0x31, 0x2f, 0x63, 0x6f, 0x6e, 0x76, 0x31, 0x64, 0x5f,
  0x31, 0x2f, 0x63, 0x6f, 0x6e, 0x76, 0x6f, 0x6c, 0x75, 0x74, 0x69, 0x6f,
  0x6e, 0x2f, 0x45, 0x78, 0x70, 0x61, 0x6e, 0x64, 0x44, 0x69, 0x6d, 0x73,
  0x00, 0x00, 0x00, 0x00, 0x04, 0x00, 0x00, 0x00, 0x01, 0x00, 0x00, 0x00,
  0x01, 0x00, 0x00, 0x00, 0x0a, 0x00, 0x00, 0x00, 0x0a, 0x00, 0x00, 0x00,
  0x56, 0xfe, 0xff, 0xff, 0x00, 0x00, 0x00, 0x01, 0x10, 0x00, 0x00, 0x00,
  0x10, 0x00, 0x00, 0x00, 0x15, 0x00, 0x00, 0x00, 0x1c, 0x00, 0x00, 0x00,
  0xd4, 0xfa, 0xff, 0xff, 0x0f, 0x00, 0x00, 0x00, 0x74, 0x66, 0x6c, 0x2e,
  0x64, 0x65, 0x71, 0x75, 0x61, 0x6e, 0x74, 0x69, 0x7a, 0x65, 0x37, 0x00,
  0x01, 0x00, 0x00, 0x00, 0x01, 0x00, 0x00, 0x00, 0x8e, 0xfe, 0xff, 0xff,
  0x00, 0x00, 0x00, 0x01, 0x10, 0x00, 0x00, 0x00, 0x10, 0x00, 0x00, 0x00,
  0x14, 0x00, 0x00, 0x00, 0x1c, 0x00, 0x00, 0x00, 0x0c, 0xfb, 0xff, 0xff,
  0x0f, 0x00, 0x00, 0x00, 0x74, 0x66, 0x6c, 0x2e, 0x64, 0x65, 0x71, 0x75,
  0x61, 0x6e, 0x74, 0x69, 0x7a, 0x65, 0x36, 0x00, 0x01, 0x00, 0x00, 0x00,
  0x08, 0x00, 0x00, 0x00, 0xc6, 0xfe, 0xff, 0xff, 0x00, 0x00, 0x00, 0x01,
  0x10, 0x00, 0x00, 0x00, 0x10, 0x00, 0x00, 0x00, 0x13, 0x00, 0x00, 0x00,
  0x1c, 0x00, 0x00, 0x00, 0x44, 0xfb, 0xff, 0xff, 0x0f, 0x00, 0x00, 0x00,
  0x74, 0x66, 0x6c, 0x2e, 0x64, 0x65, 0x71, 0x75, 0x61, 0x6e, 0x74, 0x69,
  0x7a, 0x65, 0x35, 0x00, 0x02, 0x00, 0x00, 0x00, 0x08, 0x00, 0x00, 0x00,
  0x08, 0x00, 0x00, 0x00, 0x02, 0xff, 0xff, 0xff, 0x00, 0x00, 0x00, 0x01,
  0x10, 0x00, 0x00, 0x00, 0x10, 0x00, 0x00, 0x00, 0x12, 0x00, 0x00, 0x00,
  0x1c, 0x00, 0x00, 0x00, 0x80, 0xfb, 0xff, 0xff, 0x0f, 0x00, 0x00, 0x00,
  0x74, 0x66, 0x6c, 0x2e, 0x64, 0x65, 0x71, 0x75, 0x61, 0x6e, 0x74, 0x69,
  0x7a, 0x65, 0x34, 0x00, 0x02, 0x00, 0x00, 0x00, 0x01, 0x00, 0x00, 0x00,
  0x08, 0x00, 0x00, 0x00, 0x3e, 0xff, 0xff, 0xff, 0x00, 0x00, 0x00, 0x01,
  0x10, 0x00, 0x00, 0x00, 0x10, 0x00, 0x00, 0x00, 0x11, 0x00, 0x00, 0x00,
  0x1c, 0x00, 0x00, 0x00, 0xbc, 0xfb, 0xff, 0xff, 0x0f, 0x00, 0x00, 0x00,
  0x74, 0x66, 0x6c, 0x2e, 0x64, 0x65, 0x71, 0x75, 0x61, 0x6e, 0x74, 0x69,
  0x7a, 0x65, 0x33, 0x00, 0x04, 0x00, 0x00, 0x00, 0x10, 0x00, 0x00, 0x00,
  0x01, 0x00, 0x00, 0x00, 0x03, 0x00, 0x00, 0x00, 0x0a, 0x00, 0x00, 0x00,
  0x82, 0xff, 0xff, 0xff, 0x00, 0x00, 0x00, 0x01, 0x10, 0x00, 0x00, 0x00,
  0x10, 0x00, 0x00, 0x00, 0x10, 0x00, 0x00, 0x00, 0x1c, 0x00, 0x00, 0x00,
  0x00, 0xfc, 0xff, 0xff, 0x0f, 0x00, 0x00, 0x00, 0x74, 0x66, 0x6c, 0x2e,
  0x64, 0x65, 0x71, 0x75, 0x61, 0x6e, 0x74, 0x69, 0x7a, 0x65, 0x32, 0x00,
  0x04, 0x00, 0x00, 0x00, 0x08, 0x00, 0x00, 0x00, 0x01, 0x00, 0x00, 0x00,
  0x03, 0x00, 0x00, 0x00, 0x10, 0x00, 0x00, 0x00, 0xc6, 0xff, 0xff, 0xff,
  0x00, 0x00, 0x00, 0x01, 0x10, 0x00, 0x00, 0x00, 0x10, 0x00, 0x00, 0x00,
  0x0f, 0x00, 0x00, 0x00, 0x1c, 0x00, 0x00, 0x00, 0x44, 0xfc, 0xff, 0xff,
  0x0f, 0x00, 0x00, 0x00, 0x74, 0x66, 0x6c, 0x2e, 0x64, 0x65, 0x71, 0x75,
  0x61, 0x6e, 0x74, 0x69, 0x7a, 0x65, 0x31, 0x00, 0x01, 0x00, 0x00, 0x00,
  0x10, 0x00, 0x00, 0x00, 0x00, 0x00, 0x16, 0x00, 0x18, 0x00, 0x14, 0x00,
  0x00, 0x00, 0x10, 0x00, 0x0c, 0x00, 0x08, 0x00, 0x00, 0x00, 0x00, 0x00,
  0x00, 0x00, 0x07, 0x00, 0x16, 0x00, 0x00, 0x00, 0x00, 0x00, 0x00, 0x01,
  0x10, 0x00, 0x00, 0x00, 0x10, 0x00, 0x00, 0x00, 0x0e, 0x00, 0x00, 0x00,
  0x1c, 0x00, 0x00, 0x00, 0x94, 0xfc, 0xff, 0xff, 0x0e, 0x00, 0x00, 0x00,
  0x74, 0x66, 0x6c, 0x2e, 0x64, 0x65, 0x71, 0x75, 0x61, 0x6e, 0x74, 0x69,
  0x7a, 0x65, 0x00, 0x00, 0x01, 0x00, 0x00, 0x00, 0x08, 0x00, 0x00, 0x00,
  0x46, 0xfd, 0xff, 0xff, 0x00, 0x00, 0x00, 0x01, 0x14, 0x00, 0x00, 0x00,
  0x14, 0x00, 0x00, 0x00, 0x0d, 0x00, 0x00, 0x00, 0x00, 0x00, 0x00, 0x01,
  0x20, 0x00, 0x00, 0x00, 0xd0, 0xfc, 0xff, 0xff, 0x10, 0x00, 0x00, 0x00,
  0x61, 0x72, 0x69, 0x74, 0x68, 0x2e, 0x63, 0x6f, 0x6e, 0x73, 0x74, 0x61,
  0x6e, 0x74, 0x31, 0x31, 0x00, 0x00, 0x00, 0x00, 0x01, 0x00, 0x00, 0x00,
  0x08, 0x00, 0x00, 0x00, 0x86, 0xfd, 0xff, 0xff, 0x00, 0x00, 0x00, 0x01,
  0x14, 0x00, 0x00, 0x00, 0x14, 0x00, 0x00, 0x00, 0x0c, 0x00, 0x00, 0x00,
  0x00, 0x00, 0x00, 0x01, 0x20, 0x00, 0x00, 0x00, 0x10, 0xfd, 0xff, 0xff,
  0x10, 0x00, 0x00, 0x00, 0x61, 0x72, 0x69, 0x74, 0x68, 0x2e, 0x63, 0x6f,
  0x6e, 0x73, 0x74, 0x61, 0x6e, 0x74, 0x31, 0x30, 0x00, 0x00, 0x00, 0x00,
  0x01, 0x00, 0x00, 0x00, 0x10, 0x00, 0x00, 0x00, 0xc6, 0xfd, 0xff, 0xff,
  0x00, 0x00, 0x00, 0x01, 0x14, 0x00, 0x00, 0x00, 0x14, 0x00, 0x00, 0x00,
  0x0b, 0x00, 0x00, 0x00, 0x00, 0x00, 0x00, 0x02, 0x1c, 0x00, 0x00, 0x00,
  0x50, 0xfd, 0xff, 0xff, 0x0f, 0x00, 0x00, 0x00, 0x61, 0x72, 0x69, 0x74,
  0x68, 0x2e, 0x63, 0x6f, 0x6e, 0x73, 0x74, 0x61, 0x6e, 0x74, 0x39, 0x00,
  0x01, 0x00, 0x00, 0x00, 0x03, 0x00, 0x00, 0x00, 0x02, 0xfe, 0xff, 0xff,
  0x00, 0x00, 0x00, 0x01, 0x14, 0x00, 0x00, 0x00, 0x14, 0x00, 0x00, 0x00,
  0x0a, 0x00, 0x00, 0x00, 0x00, 0x00, 0x00, 0x02, 0x1c, 0x00, 0x00, 0x00,
  0x8c, 0xfd, 0xff, 0xff, 0x0f, 0x00, 0x00, 0x00, 0x61, 0x72, 0x69, 0x74,
  0x68, 0x2e, 0x63, 0x6f, 0x6e, 0x73, 0x74, 0x61, 0x6e, 0x74, 0x38, 0x00,
  0x01, 0x00, 0x00, 0x00, 0x03, 0x00, 0x00, 0x00, 0x3e, 0xfe, 0xff, 0xff,
  0x00, 0x00, 0x00, 0x01, 0x14, 0x00, 0x00, 0x00, 0x14, 0x00, 0x00, 0x00,
  0x09, 0x00, 0x00, 0x00, 0x00, 0x00, 0x00, 0x01, 0x1c, 0x00, 0x00, 0x00,
  0xc8, 0xfd, 0xff, 0xff, 0x0f, 0x00, 0x00, 0x00, 0x61, 0x72, 0x69, 0x74,
  0x68, 0x2e, 0x63, 0x6f, 0x6e, 0x73, 0x74, 0x61, 0x6e, 0x74, 0x37, 0x00,
  0x04, 0x00, 0x00, 0x00, 0x08, 0x00, 0x00, 0x00, 0x01, 0x00, 0x00, 0x00,
  0x03, 0x00, 0x00, 0x00, 0x10, 0x00, 0x00, 0x00, 0x86, 0xfe, 0xff, 0xff,
  0x00, 0x00, 0x00, 0x01, 0x14, 0x00, 0x00, 0x00, 0x14, 0x00, 0x00, 0x00,
  0x08, 0x00, 0x00, 0x00, 0x00, 0x00, 0x00, 0x01, 0x1c, 0x00, 0x00, 0x00,
  0x10, 0xfe, 0xff, 0xff, 0x0f, 0x00, 0x00, 0x00, 0x61, 0x72, 0x69, 0x74,
  0x68, 0x2e, 0x63, 0x6f, 0x6e, 0x73, 0x74, 0x61, 0x6e, 0x74, 0x36, 0x00,
  0x04, 0x00, 0x00, 0x00, 0x10, 0x00, 0x00, 0x00, 0x01, 0x00, 0x00, 0x00,
  0x03, 0x00, 0x00, 0x00, 0x0a, 0x00, 0x00, 0x00, 0xce, 0xfe, 0xff, 0xff,
  0x00, 0x00, 0x00, 0x01, 0x14, 0x00, 0x00, 0x00, 0x14, 0x00, 0x00, 0x00,
  0x07, 0x00, 0x00, 0x00, 0x00, 0x00, 0x00, 0x01, 0x1c, 0x00, 0x00, 0x00,
  0x58, 0xfe, 0xff, 0xff, 0x0f, 0x00, 0x00, 0x00, 0x61, 0x72, 0x69, 0x74,
  0x68, 0x2e, 0x63, 0x6f, 0x6e, 0x73, 0x74, 0x61, 0x6e, 0x74, 0x35, 0x00,
  0x02, 0x00, 0x00, 0x00, 0x01, 0x00, 0x00, 0x00, 0x08, 0x00, 0x00, 0x00,
  0x0e, 0xff, 0xff, 0xff, 0x00, 0x00, 0x00, 0x01, 0x14, 0x00, 0x00, 0x00,
  0x14, 0x00, 0x00, 0x00, 0x06, 0x00, 0x00, 0x00, 0x00, 0x00, 0x00, 0x01,
  0x1c, 0x00, 0x00, 0x00, 0x98, 0xfe, 0xff, 0xff, 0x0f, 0x00, 0x00, 0x00,
  0x61, 0x72, 0x69, 0x74, 0x68, 0x2e, 0x63, 0x6f, 0x6e, 0x73, 0x74, 0x61,
  0x6e, 0x74, 0x34, 0x00, 0x02, 0x00, 0x00, 0x00, 0x08, 0x00, 0x00, 0x00,
  0x08, 0x00, 0x00, 0x00, 0x4e, 0xff, 0xff, 0xff, 0x00, 0x00, 0x00, 0x01,
  0x14, 0x00, 0x00, 0x00, 0x14, 0x00, 0x00, 0x00, 0x05, 0x00, 0x00, 0x00,
  0x00, 0x00, 0x00, 0x01, 0x1c, 0x00, 0x00, 0x00, 0xd8, 0xfe, 0xff, 0xff,
  0x0f, 0x00, 0x00, 0x00, 0x61, 0x72, 0x69, 0x74, 0x68, 0x2e, 0x63, 0x6f,
  0x6e, 0x73, 0x74, 0x61, 0x6e, 0x74, 0x33, 0x00, 0x01, 0x00, 0x00, 0x00,
  0x08, 0x00, 0x00, 0x00, 0x8a, 0xff, 0xff, 0xff, 0x00, 0x00, 0x00, 0x01,
  0x14, 0x00, 0x00, 0x00, 0x14, 0x00, 0x00, 0x00, 0x04, 0x00, 0x00, 0x00,
  0x00, 0x00, 0x00, 0x01, 0x1c, 0x00, 0x00, 0x00, 0x14, 0xff, 0xff, 0xff,
  0x0f, 0x00, 0x00, 0x00, 0x61, 0x72, 0x69, 0x74, 0x68, 0x2e, 0x63, 0x6f,
  0x6e, 0x73, 0x74, 0x61, 0x6e, 0x74, 0x32, 0x00, 0x01, 0x00, 0x00, 0x00,
  0x01, 0x00, 0x00, 0x00, 0xc6, 0xff, 0xff, 0xff, 0x00, 0x00, 0x00, 0x01,
  0x14, 0x00, 0x00, 0x00, 0x14, 0x00, 0x00, 0x00, 0x03, 0x00, 0x00, 0x00,
  0x00, 0x00, 0x00, 0x02, 0x1c, 0x00, 0x00, 0x00, 0x50, 0xff, 0xff, 0xff,
  0x0f, 0x00, 0x00, 0x00, 0x61, 0x72, 0x69, 0x74, 0x68, 0x2e, 0x63, 0x6f,
  0x6e, 0x73, 0x74, 0x61, 0x6e, 0x74, 0x31, 0x00, 0x00, 0x00, 0x00, 0x00,
  0x00, 0x00, 0x16, 0x00, 0x1c, 0x00, 0x18, 0x00, 0x17, 0x00, 0x10, 0x00,
  0x0c, 0x00, 0x08, 0x00, 0x00, 0x00, 0x00, 0x00, 0x00, 0x00, 0x07, 0x00,
  0x16, 0x00, 0x00, 0x00, 0x00, 0x00, 0x00, 0x01, 0x14, 0x00, 0x00, 0x00,
  0x14, 0x00, 0x00, 0x00, 0x02, 0x00, 0x00, 0x00, 0x00, 0x00, 0x00, 0x02,
  0x1c, 0x00, 0x00, 0x00, 0xa0, 0xff, 0xff, 0xff, 0x0e, 0x00, 0x00, 0x00,
  0x61, 0x72, 0x69, 0x74, 0x68, 0x2e, 0x63, 0x6f, 0x6e, 0x73, 0x74, 0x61,
  0x6e, 0x74, 0x00, 0x00, 0x00, 0x00, 0x00, 0x00, 0x00, 0x00, 0x16, 0x00,
  0x1c, 0x00, 0x18, 0x00, 0x00, 0x00, 0x14, 0x00, 0x10, 0x00, 0x0c, 0x00,
  0x00, 0x00, 0x00, 0x00, 0x08, 0x00, 0x07, 0x00, 0x16, 0x00, 0x00, 0x00,
  0x00, 0x00, 0x00, 0x01, 0x14, 0x00, 0x00, 0x00, 0x24, 0x00, 0x00, 0x00,
  0x24, 0x00, 0x00, 0x00, 0x01, 0x00, 0x00, 0x00, 0x40, 0x00, 0x00, 0x00,
  0x03, 0x00, 0x00, 0x00, 0xff, 0xff, 0xff, 0xff, 0x0a, 0x00, 0x00, 0x00,
  0x0a, 0x00, 0x00, 0x00, 0x04, 0x00, 0x04, 0x00, 0x04, 0x00, 0x00, 0x00,
  0x1e, 0x00, 0x00, 0x00, 0x73, 0x65, 0x72, 0x76, 0x69, 0x6e, 0x67, 0x5f,
  0x64, 0x65, 0x66, 0x61, 0x75, 0x6c, 0x74, 0x5f, 0x6b, 0x65, 0x72, 0x61,
  0x73, 0x5f, 0x74, 0x65, 0x6e, 0x73, 0x6f, 0x72, 0x3a, 0x30, 0x00, 0x00,
  0x03, 0x00, 0x00, 0x00, 0x01, 0x00, 0x00, 0x00, 0x0a, 0x00, 0x00, 0x00,
  0x0a, 0x00, 0x00, 0x00, 0x07, 0x00, 0x00, 0x00, 0x7c, 0x00, 0x00, 0x00,
  0x60, 0x00, 0x00, 0x00, 0x44, 0x00, 0x00, 0x00, 0x34, 0x00, 0x00, 0x00,
  0x24, 0x00, 0x00, 0x00, 0x14, 0x00, 0x00, 0x00, 0x04, 0x00, 0x00, 0x00,
  0xc4, 0xff, 0xff, 0xff, 0x0e, 0x00, 0x00, 0x00, 0x00, 0x00, 0x00, 0x0e,
  0xd0, 0xff, 0xff, 0xff, 0x09, 0x00, 0x00, 0x00, 0x00, 0x00, 0x00, 0x09,
  0xdc, 0xff, 0xff, 0xff, 0x52, 0x00, 0x00, 0x00, 0x00, 0x00, 0x00, 0x52,
  0xe8, 0xff, 0xff, 0xff, 0x16, 0x00, 0x00, 0x00, 0x00, 0x00, 0x00, 0x16,
  0xf4, 0xff, 0xff, 0xff, 0x03, 0x00, 0x00, 0x00, 0x00, 0x00, 0x00, 0x03,
  0x0c, 0x00, 0x0c, 0x00, 0x0b, 0x00, 0x00, 0x00, 0x00, 0x00, 0x04, 0x00,
  0x0c, 0x00, 0x00, 0x00, 0x46, 0x00, 0x00, 0x00, 0x00, 0x00, 0x00, 0x46,
  0x0c, 0x00, 0x10, 0x00, 0x0f, 0x00, 0x00, 0x00, 0x08, 0x00, 0x04, 0x00,
  0x0c, 0x00, 0x00, 0x00, 0x06, 0x00, 0x00, 0x00, 0x03, 0x00, 0x00, 0x00,
  0x00, 0x00, 0x00, 0x06
};

const unsigned int model_data_len = 6928;

#endif
