// FLOAT32 model for ESP32 IMU sensors
// Model size: 7384 bytes (7.21 KB)
// No quantization - Full precision for sensor data

#ifndef MODEL_H
#define MODEL_H

alignas(8) const unsigned char model_data[] = {
  0x1c, 0x00, 0x00, 0x00, 0x54, 0x46, 0x4c, 0x33, 0x14, 0x00, 0x20, 0x00,
  0x1c, 0x00, 0x18, 0x00, 0x14, 0x00, 0x10, 0x00, 0x0c, 0x00, 0x00, 0x00,
  0x08, 0x00, 0x04, 0x00, 0x14, 0x00, 0x00, 0x00, 0x1c, 0x00, 0x00, 0x00,
  0x8c, 0x00, 0x00, 0x00, 0xe4, 0x00, 0x00, 0x00, 0xa0, 0x0f, 0x00, 0x00,
  0xb0, 0x0f, 0x00, 0x00, 0x34, 0x1c, 0x00, 0x00, 0x03, 0x00, 0x00, 0x00,
  0x01, 0x00, 0x00, 0x00, 0x04, 0x00, 0x00, 0x00, 0xa2, 0xee, 0xff, 0xff,
  0x0c, 0x00, 0x00, 0x00, 0x1c, 0x00, 0x00, 0x00, 0x3c, 0x00, 0x00, 0x00,
  0x0f, 0x00, 0x00, 0x00, 0x73, 0x65, 0x72, 0x76, 0x69, 0x6e, 0x67, 0x5f,
  0x64, 0x65, 0x66, 0x61, 0x75, 0x6c, 0x74, 0x00, 0x01, 0x00, 0x00, 0x00,
  0x04, 0x00, 0x00, 0x00, 0x90, 0xff, 0xff, 0xff, 0x16, 0x00, 0x00, 0x00,
  0x04, 0x00, 0x00, 0x00, 0x08, 0x00, 0x00, 0x00, 0x6f, 0x75, 0x74, 0x70,
  0x75, 0x74, 0x5f, 0x30, 0x00, 0x00, 0x00, 0x00, 0x01, 0x00, 0x00, 0x00,
  0x04, 0x00, 0x00, 0x00, 0x02, 0xf1, 0xff, 0xff, 0x04, 0x00, 0x00, 0x00,
  0x0f, 0x00, 0x00, 0x00, 0x6b, 0x65, 0x72, 0x61, 0x73, 0x5f, 0x74, 0x65,
  0x6e, 0x73, 0x6f, 0x72, 0x5f, 0x31, 0x38, 0x00, 0x02, 0x00, 0x00, 0x00,
  0x34, 0x00, 0x00, 0x00, 0x04, 0x00, 0x00, 0x00, 0xdc, 0xff, 0xff, 0xff,
  0x19, 0x00, 0x00, 0x00, 0x04, 0x00, 0x00, 0x00, 0x13, 0x00, 0x00, 0x00,
  0x43, 0x4f, 0x4e, 0x56, 0x45, 0x52, 0x53, 0x49, 0x4f, 0x4e, 0x5f, 0x4d,
  0x45, 0x54, 0x41, 0x44, 0x41, 0x54, 0x41, 0x00, 0x08, 0x00, 0x0c, 0x00,
  0x08, 0x00, 0x04, 0x00, 0x08, 0x00, 0x00, 0x00, 0x18, 0x00, 0x00, 0x00,
  0x04, 0x00, 0x00, 0x00, 0x13, 0x00, 0x00, 0x00, 0x6d, 0x69, 0x6e, 0x5f,
  0x72, 0x75, 0x6e, 0x74, 0x69, 0x6d, 0x65, 0x5f, 0x76, 0x65, 0x72, 0x73,
  0x69, 0x6f, 0x6e, 0x00, 0x1a, 0x00, 0x00, 0x00, 0xb8, 0x0e, 0x00, 0x00,
  0xb0, 0x0e, 0x00, 0x00, 0x80, 0x0e, 0x00, 0x00, 0x28, 0x0e, 0x00, 0x00,
  0x0c, 0x0e, 0x00, 0x00, 0xf0, 0x0d, 0x00, 0x00, 0xe0, 0x07, 0x00, 0x00,
  0x90, 0x02, 0x00, 0x00, 0x60, 0x02, 0x00, 0x00, 0x50, 0x01, 0x00, 0x00,
  0x3c, 0x01, 0x00, 0x00, 0x0c, 0x01, 0x00, 0x00, 0xf8, 0x00, 0x00, 0x00,
  0xe4, 0x00, 0x00, 0x00, 0xdc, 0x00, 0x00, 0x00, 0xd4, 0x00, 0x00, 0x00,
  0xcc, 0x00, 0x00, 0x00, 0xc4, 0x00, 0x00, 0x00, 0xbc, 0x00, 0x00, 0x00,
  0xb4, 0x00, 0x00, 0x00, 0xac, 0x00, 0x00, 0x00, 0xa4, 0x00, 0x00, 0x00,
  0x9c, 0x00, 0x00, 0x00, 0x94, 0x00, 0x00, 0x00, 0x74, 0x00, 0x00, 0x00,
  0x04, 0x00, 0x00, 0x00, 0xe6, 0xf1, 0xff, 0xff, 0x04, 0x00, 0x00, 0x00,
  0x60, 0x00, 0x00, 0x00, 0x10, 0x00, 0x00, 0x00, 0x00, 0x00, 0x00, 0x00,
  0x08, 0x00, 0x0e, 0x00, 0x08, 0x00, 0x04, 0x00, 0x08, 0x00, 0x00, 0x00,
  0x10, 0x00, 0x00, 0x00, 0x24, 0x00, 0x00, 0x00, 0x00, 0x00, 0x06, 0x00,
  0x08, 0x00, 0x04, 0x00, 0x06, 0x00, 0x00, 0x00, 0x04, 0x00, 0x00, 0x00,
  0x00, 0x00, 0x00, 0x00, 0x0c, 0x00, 0x18, 0x00, 0x14, 0x00, 0x10, 0x00,
  0x0c, 0x00, 0x04, 0x00, 0x0c, 0x00, 0x00, 0x00, 0x29, 0x87, 0xea, 0x82,
  0xb7, 0x62, 0x22, 0x90, 0x02, 0x00, 0x00, 0x00, 0x02, 0x00, 0x00, 0x00,
  0x04, 0x00, 0x00, 0x00, 0x06, 0x00, 0x00, 0x00, 0x32, 0x2e, 0x31, 0x38,
  0x2e, 0x30, 0x00, 0x00, 0x52, 0xf2, 0xff, 0xff, 0x04, 0x00, 0x00, 0x00,
  0x10, 0x00, 0x00, 0x00, 0x31, 0x2e, 0x31, 0x34, 0x2e, 0x30, 0x00, 0x00,
  0x00, 0x00, 0x00, 0x00, 0x00, 0x00, 0x00, 0x00, 0xd8, 0xe5, 0xff, 0xff,
  0xdc, 0xe5, 0xff, 0xff, 0xe0, 0xe5, 0xff, 0xff, 0xe4, 0xe5, 0xff, 0xff,
  0xe8, 0xe5, 0xff, 0xff, 0xec, 0xe5, 0xff, 0xff, 0xf0, 0xe5, 0xff, 0xff,
  0xf4, 0xe5, 0xff, 0xff, 0xf8, 0xe5, 0xff, 0xff, 0xfc, 0xe5, 0xff, 0xff,
  0x96, 0xf2, 0xff, 0xff, 0x04, 0x00, 0x00, 0x00, 0x04, 0x00, 0x00, 0x00,
  0xfd, 0xff, 0xff, 0xff, 0xa6, 0xf2, 0xff, 0xff, 0x04, 0x00, 0x00, 0x00,
  0x04, 0x00, 0x00, 0x00, 0x01, 0x00, 0x00, 0x00, 0xb6, 0xf2, 0xff, 0xff,
  0x04, 0x00, 0x00, 0x00, 0x20, 0x00, 0x00, 0x00, 0x40, 0xea, 0xd5, 0xbc,
  0xe4, 0x94, 0xd4, 0x3d, 0x21, 0xad, 0x1b, 0xbe, 0xfb, 0x67, 0x9c, 0x3d,
  0xd6, 0x8a, 0xae, 0x3d, 0xfb, 0xda, 0x41, 0xbe, 0x6b, 0x6f, 0xdb, 0x3d,
  0xa2, 0xb1, 0x5d, 0x3d, 0xe2, 0xf2, 0xff, 0xff, 0x04, 0x00, 0x00, 0x00,
  0x04, 0x00, 0x00, 0x00, 0xdf, 0xa4, 0xa5, 0xbd, 0xf2, 0xf2, 0xff, 0xff,
  0x04, 0x00, 0x00, 0x00, 0x00, 0x01, 0x00, 0x00, 0xa7, 0x1e, 0xe3, 0xbd,
  0x81, 0x2d, 0x67, 0x3f, 0xe4, 0x27, 0xff, 0x3e, 0x9d, 0xdb, 0xe1, 0xbe,
  0x50, 0xcb, 0x02, 0xbf, 0x48, 0x24, 0x4e, 0xbe, 0xa6, 0xda, 0x0e, 0x3e,
  0xb8, 0xc5, 0x21, 0x3f, 0x27, 0xfb, 0xb8, 0xbe, 0x96, 0x34, 0x6f, 0x3f,
  0x27, 0x42, 0xca, 0x3e, 0xf7, 0x5a, 0x04, 0x3e, 0xe6, 0xc5, 0xda, 0xbe,
  0xbe, 0xf9, 0x95, 0x3d, 0xf5, 0x4f, 0xac, 0x3e, 0x5d, 0xb4, 0x20, 0xbb,
  0xc9, 0x50, 0x18, 0x3f, 0x99, 0x7e, 0x0b, 0x3e, 0xae, 0x81, 0xf4, 0xbe,
  0x0f, 0x81, 0x28, 0xbf, 0x64, 0x3f, 0x09, 0xbd, 0xcf, 0xd5, 0xda, 0xbe,
  0x52, 0x4c, 0xf8, 0x3e, 0x51, 0xcb, 0x6e, 0x3f, 0xb3, 0xfd, 0x80, 0x3e,
  0x2f, 0x53, 0x14, 0x3e, 0x7d, 0xd9, 0x1f, 0x3f, 0x20, 0xab, 0xe0, 0x3d,
  0x14, 0x10, 0xf3, 0x3e, 0x85, 0x11, 0x6c, 0xbe, 0x28, 0xf6, 0xe0, 0x3e,
  0x2b, 0x6e, 0x43, 0xbf, 0x2c, 0x56, 0x88, 0x3e, 0xbe, 0x77, 0x1c, 0x3e,
  0x99, 0x9f, 0xb4, 0xbd, 0xfb, 0xc1, 0xf2, 0x3e, 0x05, 0x68, 0x26, 0x3f,
  0xe1, 0x33, 0x08, 0xbe, 0xe3, 0xe1, 0xae, 0xbc, 0x77, 0x4e, 0x52, 0xbf,
  0x13, 0x55, 0xfb, 0x3e, 0xe9, 0x8a, 0xab, 0x3e, 0x2d, 0xf6, 0x4b, 0xbe,
  0x9e, 0xed, 0x4b, 0xbe, 0x7a, 0xc8, 0x16, 0xbf, 0xe2, 0x2c, 0x8c, 0xbe,
  0xa7, 0x14, 0xbe, 0x3e, 0xb1, 0x67, 0x71, 0x3f, 0x58, 0xec, 0xb0, 0xbe,
  0x5b, 0x27, 0x4f, 0xbe, 0x6c, 0xcb, 0xc1, 0x3e, 0x7f, 0x6c, 0x3b, 0x3f,
  0x68, 0xda, 0xcb, 0x3e, 0x5a, 0xb4, 0xd7, 0x3e, 0xcc, 0x76, 0x09, 0x3f,
  0xb4, 0xb6, 0x2c, 0xbf, 0xd5, 0x02, 0x18, 0x3f, 0x45, 0xef, 0x16, 0xbf,
  0x6e, 0x89, 0x72, 0x3e, 0xee, 0x81, 0x23, 0x3f, 0x4f, 0xc6, 0x11, 0x3f,
  0x45, 0x2a, 0xcc, 0x3e, 0x75, 0x96, 0x4b, 0xbf, 0xbb, 0x42, 0x22, 0x3e,
  0xfe, 0xf3, 0xff, 0xff, 0x04, 0x00, 0x00, 0x00, 0x20, 0x00, 0x00, 0x00,
  0x6d, 0x80, 0x6f, 0x3f, 0x61, 0x5b, 0xa8, 0x3e, 0x76, 0x0c, 0x79, 0x3f,
  0x2e, 0x7f, 0x05, 0xbf, 0x31, 0x36, 0xa8, 0xbe, 0xd4, 0xe3, 0xc2, 0x3e,
  0x9b, 0xdc, 0x1b, 0xbf, 0x87, 0xc6, 0x9c, 0xbf, 0x2a, 0xf4, 0xff, 0xff,
  0x04, 0x00, 0x00, 0x00, 0x40, 0x05, 0x00, 0x00, 0x8b, 0xf2, 0xa6, 0xbe,
  0xaa, 0x19, 0xfc, 0xbe, 0x4e, 0x8c, 0xc8, 0x3d, 0x6c, 0x87, 0x25, 0xbf,
  0x21, 0x14, 0x71, 0x3e, 0x43, 0x02, 0x43, 0x3e, 0xe3, 0xae, 0xaa, 0x3e,
  0xaa, 0x70, 0x12, 0xbe, 0x34, 0x59, 0x99, 0xbe, 0xde, 0x43, 0xfa, 0xbc,
  0x52, 0x31, 0x16, 0xbe, 0x86, 0x14, 0xf6, 0xbd, 0xe7, 0xb2, 0xa0, 0xbe,
  0x74, 0x92, 0x06, 0xbd, 0x71, 0x44, 0x90, 0xbe, 0x6e, 0xbe, 0xf4, 0xbd,
  0xe9, 0xac, 0x8d, 0xbe, 0xe2, 0xff, 0x84, 0xbe, 0xd6, 0xd3, 0xc6, 0x3e,
  0x15, 0x71, 0xad, 0xbd, 0xb5, 0xa3, 0x87, 0x3e, 0xcb, 0xb4, 0xa2, 0xbc,
  0xd7, 0x9e, 0x11, 0xbe, 0x15, 0x80, 0x29, 0xbc, 0x10, 0xb2, 0xc5, 0xbe,
  0xc0, 0x03, 0x5d, 0xbe, 0xfe, 0x43, 0xd4, 0xbd, 0xca, 0xfe, 0xb6, 0x3d,
  0x97, 0x96, 0x0c, 0x3f, 0x75, 0x9d, 0x0b, 0xbe, 0x64, 0xe9, 0x2c, 0x3e,
  0x07, 0x72, 0x5c, 0xbe, 0x7e, 0x60, 0xd9, 0x3e, 0x7f, 0x72, 0x23, 0xbd,
  0x2d, 0x1d, 0x52, 0x3e, 0xfa, 0x32, 0x25, 0x3f, 0xdf, 0xea, 0x89, 0x3e,
  0xe3, 0x8c, 0xe2, 0x3e, 0xbe, 0xb3, 0x79, 0x3e, 0xe9, 0xc6, 0xb5, 0x3e,
  0xa2, 0xf3, 0xa2, 0xbe, 0x76, 0x26, 0x5c, 0x3d, 0x41, 0x88, 0x8f, 0xbe,
  0x71, 0xed, 0x46, 0xbe, 0x2e, 0x5a, 0x0b, 0x3d, 0xcd, 0xe8, 0x1f, 0xbf,
  0x6f, 0xe0, 0x34, 0xbe, 0xe5, 0x2f, 0x91, 0x3d, 0xcd, 0x65, 0x3c, 0x3e,
  0xdf, 0x19, 0x9a, 0x3e, 0xd5, 0xc8, 0x47, 0xbe, 0xc5, 0x64, 0x96, 0xbe,
  0x78, 0x86, 0x03, 0xbf, 0xa4, 0xb8, 0x9e, 0x3e, 0x97, 0xa2, 0x79, 0xbe,
  0x3f, 0xeb, 0x04, 0x3d, 0x3b, 0xf3, 0xf1, 0xbd, 0xe6, 0xd4, 0xd9, 0xbd,
  0xac, 0xf1, 0x8b, 0x3d, 0x0f, 0xd3, 0x6f, 0x3c, 0xef, 0xcc, 0x0e, 0xbe,
  0x10, 0x3d, 0x72, 0x3e, 0xaf, 0x45, 0x37, 0xbe, 0x3f, 0x3c, 0xab, 0xbe,
  0x79, 0x45, 0x62, 0x3e, 0xbc, 0x4e, 0xd6, 0x3e, 0xe7, 0xe9, 0xba, 0x3d,
  0xa8, 0x8f, 0x6d, 0x3e, 0x27, 0x26, 0x6b, 0xbe, 0x83, 0xcb, 0xaa, 0xbd,
  0xb1, 0xb2, 0x76, 0x3e, 0x98, 0xd1, 0x3e, 0xbe, 0xdc, 0x87, 0x8a, 0x3e,
  0x78, 0x56, 0x26, 0xbe, 0x05, 0xc4, 0x90, 0x3c, 0x80, 0x8f, 0xa9, 0x3d,
  0x83, 0x3a, 0x81, 0xbe, 0xbf, 0xd4, 0x03, 0x3f, 0x61, 0x4b, 0xcc, 0x3e,
  0x48, 0x64, 0xca, 0xbe, 0xaa, 0x8d, 0x5e, 0x3e, 0x6b, 0x2a, 0x8b, 0xbe,
  0x1c, 0xc7, 0x57, 0x3e, 0xed, 0xcd, 0x73, 0xbe, 0x91, 0xd2, 0x18, 0x3b,
  0x4f, 0x42, 0xf3, 0xbe, 0x7f, 0x63, 0x2a, 0xbf, 0xa2, 0x03, 0x09, 0x3e,
  0x07, 0xc0, 0x19, 0x3e, 0xe8, 0xe2, 0x84, 0x3c, 0x78, 0x19, 0x63, 0x3e,
  0x73, 0xa8, 0xfc, 0x3d, 0x23, 0x57, 0xbd, 0x3d, 0xd9, 0x40, 0x3c, 0x3d,
  0x3d, 0x61, 0x18, 0xbf, 0xd1, 0xa4, 0xde, 0x3e, 0x9b, 0x05, 0x36, 0x3e,
  0xf5, 0x67, 0x85, 0xbd, 0x72, 0x4d, 0x7e, 0xbe, 0x8f, 0x62, 0xba, 0xbd,
  0x6d, 0xd4, 0xca, 0xbe, 0x26, 0x8d, 0xea, 0xbe, 0xa8, 0x79, 0xae, 0xbc,
  0x80, 0x4b, 0x0c, 0x3e, 0xc4, 0xc1, 0x3c, 0x3d, 0x3f, 0x35, 0x2a, 0xbd,
  0x38, 0x4d, 0x8e, 0xbd, 0x3e, 0x6c, 0xdc, 0x3e, 0xd6, 0xb2, 0x85, 0x3e,
  0xe9, 0x7e, 0x03, 0x3e, 0xe4, 0x18, 0xa0, 0x3e, 0x04, 0x3b, 0xb4, 0x3e,
  0x56, 0x4f, 0x7c, 0x3d, 0x4c, 0x32, 0xc7, 0xbd, 0x13, 0xc0, 0xd4, 0x3e,
  0x70, 0x4c, 0xd7, 0xbd, 0xb0, 0x8e, 0xaf, 0x3d, 0xa3, 0xab, 0x9f, 0x3e,
  0x26, 0x3d, 0xb3, 0x3e, 0x5f, 0xf1, 0x49, 0xbe, 0x35, 0xd5, 0x71, 0x3c,
  0x6d, 0xce, 0xa0, 0x3e, 0x55, 0x4f, 0x7b, 0xbe, 0xbf, 0xe6, 0xe3, 0xbe,
  0x30, 0xc8, 0x39, 0x3e, 0x4a, 0x9d, 0xc9, 0x3c, 0x52, 0xe6, 0xdc, 0x3d,
  0x57, 0xa0, 0xc9, 0x3d, 0x1d, 0x56, 0xe3, 0xbe, 0xda, 0x19, 0x09, 0x3e,
  0xac, 0xe6, 0x7e, 0xbe, 0x38, 0x6b, 0x91, 0xbe, 0x0d, 0xc0, 0x3c, 0xbe,
  0xf7, 0x13, 0x9c, 0xbd, 0x1f, 0x7d, 0x9d, 0xbc, 0x21, 0x49, 0xb8, 0xbe,
  0xec, 0x17, 0xe1, 0xbd, 0x69, 0x4c, 0x9c, 0xbe, 0x4e, 0xa7, 0x71, 0x3c,
  0x7a, 0x4d, 0x38, 0x3e, 0x0e, 0x9d, 0xdf, 0x3e, 0x38, 0x2f, 0x8c, 0xbe,
  0x7c, 0xbf, 0x02, 0xbd, 0x6f, 0x85, 0x60, 0x3e, 0xde, 0x6a, 0xdd, 0xbe,
  0x40, 0xf4, 0x9d, 0x3d, 0x11, 0xf1, 0x0c, 0xbe, 0xda, 0x80, 0x46, 0xbd,
  0x7c, 0xf3, 0xd2, 0xbe, 0x1a, 0xd0, 0xbf, 0xbe, 0xab, 0xe5, 0xa3, 0xbd,
  0x60, 0xb8, 0x03, 0xbf, 0xfb, 0x7a, 0x72, 0xbe, 0x5f, 0xcb, 0xb4, 0xbe,
  0x32, 0xf2, 0xc5, 0xbe, 0xc0, 0xc5, 0x2c, 0xbe, 0x21, 0xc0, 0xf5, 0x3e,
  0x01, 0x32, 0x40, 0x3e, 0xa6, 0x2c, 0x5e, 0x3e, 0x2a, 0xa6, 0x2a, 0xbe,
  0xe8, 0xab, 0x1b, 0x3e, 0xc9, 0x68, 0x10, 0xbe, 0x88, 0xe5, 0x85, 0x3c,
  0x2c, 0x36, 0x40, 0x3e, 0x35, 0x13, 0x86, 0x3e, 0x28, 0xf2, 0xb5, 0x3e,
  0xb5, 0x61, 0x8e, 0x3e, 0xe3, 0x34, 0xa9, 0xbe, 0x4a, 0x8d, 0x5e, 0xbd,
  0x0f, 0xb5, 0x9b, 0x3d, 0xa1, 0x71, 0xc1, 0xbe, 0xec, 0xa4, 0x69, 0xbd,
  0xd7, 0x47, 0x29, 0x3f, 0xd7, 0x6d, 0x4c, 0xbe, 0x8b, 0x99, 0x86, 0x3d,
  0x90, 0xbd, 0x96, 0xbe, 0xe6, 0xb2, 0xd4, 0x3d, 0xf0, 0x01, 0x07, 0xbf,
  0x7d, 0x14, 0x53, 0x3e, 0x77, 0xfd, 0x42, 0x3f, 0x2a, 0x45, 0x78, 0x3e,
  0x56, 0x92, 0xb1, 0x3e, 0xd5, 0x0a, 0xb8, 0xbe, 0x0e, 0x06, 0xb9, 0x3e,
  0x5c, 0x6e, 0x15, 0x3e, 0x78, 0xca, 0x80, 0x3d, 0x2f, 0x58, 0x24, 0x3f,
  0x5b, 0x18, 0xb8, 0xbe, 0x75, 0x01, 0x20, 0xbe, 0xbf, 0x49, 0xf5, 0x3d,
  0xde, 0x6f, 0x86, 0xbe, 0x82, 0x02, 0xaa, 0x3d, 0xf5, 0xeb, 0xba, 0x3e,
  0xc0, 0x88, 0xd7, 0xbc, 0x04, 0xf6, 0x54, 0xbe, 0x31, 0xb1, 0x80, 0xbd,
  0x32, 0x9c, 0xf1, 0x3e, 0x79, 0xdf, 0xa4, 0xbe, 0xfd, 0x16, 0xa1, 0x3e,
  0xc6, 0x27, 0x93, 0x3e, 0x49, 0x07, 0x42, 0x3c, 0x9e, 0xb5, 0x1e, 0xbe,
  0x3f, 0x36, 0x94, 0x3e, 0x0c, 0x4b, 0x49, 0x3e, 0x92, 0x30, 0x82, 0xbe,
  0xd9, 0xbb, 0xa0, 0x3e, 0x9f, 0x09, 0x4d, 0xbe, 0x4e, 0xf2, 0x85, 0xbe,
  0xe1, 0xb6, 0x71, 0x3d, 0x06, 0x56, 0x91, 0x3e, 0xcf, 0x58, 0xa6, 0xbe,
  0xd1, 0x8d, 0xb5, 0x3e, 0xb2, 0x7a, 0x2a, 0xbe, 0x16, 0xd0, 0xab, 0x3e,
  0x14, 0xa4, 0x8c, 0xbe, 0xbe, 0xf8, 0xb0, 0x3e, 0x5f, 0x77, 0x59, 0x3d,
  0x67, 0xbe, 0xee, 0xbe, 0xf0, 0xb0, 0x8e, 0x3e, 0x43, 0x87, 0x93, 0x3c,
  0xba, 0xc1, 0x82, 0xbd, 0xf0, 0x02, 0x19, 0x3e, 0x54, 0x2a, 0x91, 0x3e,
  0xda, 0xd7, 0xbd, 0x3d, 0x6f, 0x54, 0xe4, 0xbe, 0xf2, 0x3a, 0x06, 0x3e,
  0xd0, 0x4a, 0x64, 0x3d, 0x8f, 0xac, 0x4b, 0xbe, 0xaf, 0x7a, 0xc4, 0x3e,
  0xf5, 0x96, 0x9a, 0x3e, 0xae, 0x1c, 0xb3, 0x3e, 0xad, 0xb6, 0x0c, 0x3f,
  0x0c, 0x4e, 0x62, 0xbe, 0x31, 0xa6, 0x71, 0x3e, 0xd4, 0xd5, 0x90, 0x3e,
  0x3b, 0x5d, 0xac, 0xbe, 0x5f, 0x5c, 0x25, 0xbe, 0x9c, 0x47, 0xa7, 0xbb,
  0x1f, 0x34, 0x25, 0xbe, 0xc4, 0x90, 0xe3, 0x3d, 0x3d, 0x1a, 0xb5, 0x3d,
  0x98, 0x3d, 0x9f, 0x3e, 0x9b, 0x52, 0xc4, 0xbe, 0x6b, 0xc7, 0x7f, 0xbe,
  0xcd, 0x2d, 0x9e, 0xbd, 0xa9, 0xa2, 0xca, 0xbd, 0x20, 0x00, 0x82, 0x3d,
  0x32, 0x8d, 0x39, 0x3e, 0x8f, 0xcd, 0xb9, 0xbd, 0xea, 0x56, 0x82, 0xbe,
  0xf4, 0xc9, 0xb4, 0xbd, 0xde, 0xec, 0xa3, 0xbd, 0xdc, 0xe2, 0xf7, 0xbe,
  0x93, 0x5b, 0x0e, 0xbf, 0xe2, 0x71, 0x85, 0xbe, 0x57, 0x74, 0x59, 0x3e,
  0x52, 0x76, 0x79, 0x3e, 0xbd, 0x97, 0xe8, 0xbe, 0x47, 0x3b, 0x25, 0xbd,
  0xb6, 0x0c, 0x72, 0x3d, 0x74, 0x48, 0xf3, 0xbe, 0x3a, 0xc9, 0xfe, 0xbd,
  0x14, 0x65, 0x74, 0xbd, 0x12, 0x9a, 0xe0, 0xbd, 0x50, 0xc6, 0xc4, 0xbd,
  0xd6, 0xbf, 0x61, 0x3d, 0x88, 0xd8, 0xa3, 0x3e, 0x48, 0x29, 0x24, 0xbf,
  0x3e, 0x8e, 0x74, 0xbe, 0xe9, 0x05, 0x77, 0x3e, 0xc8, 0x0e, 0xaf, 0xbe,
  0x50, 0xe2, 0xa7, 0xbe, 0x2d, 0xac, 0x15, 0x3e, 0xbd, 0xa5, 0x3d, 0xbe,
  0x0f, 0xf7, 0x40, 0x3c, 0xbf, 0xc4, 0xb0, 0xbe, 0xfd, 0x3f, 0x6d, 0x3d,
  0xaa, 0xc0, 0xae, 0xbe, 0x39, 0x4e, 0x03, 0x3e, 0x3e, 0x04, 0x87, 0x3e,
  0x2c, 0x13, 0xbb, 0xbe, 0x64, 0xea, 0x8e, 0x3e, 0x57, 0x02, 0x46, 0x3d,
  0xd9, 0x05, 0x53, 0x3e, 0x8a, 0xdf, 0x6b, 0xbe, 0x23, 0x04, 0x8f, 0x3e,
  0xae, 0x1e, 0xbd, 0xbc, 0xb5, 0x6b, 0x00, 0xbf, 0xd4, 0x8a, 0x7b, 0x3b,
  0x09, 0x15, 0xf8, 0xbb, 0xb9, 0x74, 0x81, 0xbd, 0xe0, 0x2b, 0xfd, 0x3d,
  0x26, 0xa8, 0x3c, 0x3e, 0x8e, 0xfc, 0xef, 0xbd, 0xed, 0x5d, 0xb6, 0x3e,
  0xea, 0xbd, 0x86, 0x3e, 0x6d, 0x18, 0x83, 0x3d, 0x72, 0x34, 0x79, 0x3e,
  0xc9, 0xd6, 0x4b, 0x3d, 0xdd, 0x50, 0xac, 0x3e, 0xb8, 0xa3, 0x80, 0x3e,
  0x48, 0x6d, 0xb3, 0xbc, 0x66, 0x7c, 0x18, 0xbe, 0xde, 0xbd, 0x67, 0xbe,
  0xf7, 0x71, 0xfd, 0xbd, 0xce, 0xdb, 0x67, 0xbe, 0xa4, 0xe5, 0xf3, 0x3c,
  0xfd, 0x62, 0xe5, 0x3e, 0x4f, 0x83, 0xb7, 0x3d, 0x07, 0x2f, 0xae, 0x3d,
  0x33, 0x9d, 0xc4, 0xbe, 0xae, 0x39, 0xcd, 0xbe, 0xc0, 0xf4, 0xad, 0x3d,
  0xb9, 0xb8, 0x90, 0x3e, 0x52, 0x6c, 0xeb, 0x3e, 0xbc, 0xc5, 0x88, 0xbe,
  0xef, 0x52, 0x54, 0x3e, 0x25, 0x9d, 0x9c, 0x3c, 0x7e, 0xa8, 0x09, 0xbe,
  0x13, 0xeb, 0xe0, 0xbe, 0x6b, 0x2e, 0xed, 0x3c, 0x3e, 0x0a, 0x94, 0xbd,
  0x8c, 0x91, 0xc9, 0xbe, 0xe5, 0x13, 0x53, 0x3e, 0x3b, 0x6f, 0x54, 0x3e,
  0xe1, 0x2e, 0x6c, 0xbe, 0x58, 0x38, 0x30, 0x3e, 0x2d, 0x48, 0x9e, 0xbe,
  0x0d, 0xec, 0x36, 0x3e, 0xa8, 0x95, 0x66, 0xbe, 0x08, 0x62, 0x81, 0xbd,
  0x1f, 0x5c, 0x64, 0xbe, 0x38, 0x33, 0xf7, 0xbd, 0xeb, 0xa9, 0x4a, 0x3e,
  0x05, 0x60, 0xb2, 0xbe, 0x20, 0xbf, 0xaf, 0x3e, 0x76, 0xf9, 0xff, 0xff,
  0x04, 0x00, 0x00, 0x00, 0x00, 0x06, 0x00, 0x00, 0x83, 0x3f, 0x68, 0xbe,
  0x9e, 0x60, 0x0b, 0x3e, 0x29, 0x31, 0xda, 0x3e, 0x1d, 0x66, 0x99, 0xbc,
  0xdd, 0xed, 0xf5, 0xbe, 0xfa, 0xed, 0x07, 0x3c, 0x7a, 0x3e, 0x90, 0x3e,
  0xb7, 0x75, 0x36, 0xbe, 0x14, 0x31, 0x60, 0x3e, 0x38, 0x80, 0x35, 0x3a,
  0xc6, 0xf6, 0x9a, 0xbe, 0xe6, 0x76, 0xcb, 0x3d, 0x53, 0x08, 0x1d, 0x3f,
  0xbc, 0xb6, 0x15, 0xbe, 0xc6, 0x2e, 0xab, 0x3d, 0xf8, 0xe8, 0xfe, 0x3d,
  0x3c, 0x64, 0x37, 0x3e, 0x79, 0xc5, 0x4f, 0x3e, 0x66, 0x0e, 0x02, 0x3f,
  0x49, 0xa8, 0x1c, 0xbe, 0xa0, 0x19, 0xce, 0x3c, 0x95, 0xe9, 0xc0, 0x3d,
  0x56, 0x5a, 0x74, 0x3e, 0xad, 0xb0, 0x0a, 0x3d, 0x43, 0xcc, 0x22, 0x3e,
  0x9c, 0xc4, 0xb0, 0x3e, 0xb1, 0x92, 0x25, 0x3e, 0x0c, 0x3d, 0xe8, 0x3e,
  0x4f, 0x7f, 0x96, 0x3e, 0x36, 0xb7, 0x76, 0x3e, 0x7a, 0x53, 0xca, 0xbd,
  0x25, 0x7b, 0xaa, 0xbd, 0xf3, 0xf0, 0xf1, 0xbd, 0x92, 0x94, 0xb7, 0x3c,
  0xce, 0x7f, 0x05, 0x3f, 0x95, 0x9d, 0x01, 0x3e, 0x85, 0x23, 0x92, 0x3e,
  0x09, 0x51, 0x2f, 0x3e, 0xe4, 0x12, 0x43, 0x3e, 0xe1, 0xcd, 0x0d, 0xbd,
  0x64, 0xaa, 0xdf, 0xbd, 0x1d, 0x47, 0xde, 0x3d, 0x0a, 0xa4, 0x4a, 0x3e,
  0x9b, 0xf3, 0xc9, 0x3e, 0x9b, 0xc4, 0xe0, 0x3e, 0x0b, 0xbf, 0x56, 0x3d,
  0x17, 0x54, 0x9a, 0xbe, 0xbb, 0xd8, 0x61, 0xbe, 0x1a, 0x95, 0x29, 0x3e,
  0x57, 0xba, 0x8e, 0x3e, 0xc6, 0xcf, 0x4c, 0x3e, 0x52, 0x6d, 0xf3, 0x3e,
  0x28, 0x98, 0x36, 0x3f, 0x9b, 0x15, 0x36, 0x3e, 0x15, 0xfd, 0xdc, 0x3e,
  0x56, 0x06, 0xa9, 0xbe, 0x00, 0xd2, 0xdd, 0xbe, 0xa6, 0x6d, 0x80, 0x3d,
  0x24, 0xa0, 0xc7, 0xbc, 0x22, 0xe9, 0x90, 0x3d, 0x59, 0xb7, 0x11, 0xbe,
  0x14, 0x33, 0xa9, 0xbe, 0xf5, 0x3e, 0xa5, 0x3d, 0xfa, 0xac, 0x4e, 0x3e,
  0x07, 0x05, 0x08, 0x3f, 0x33, 0xd9, 0x37, 0x3e, 0xd2, 0x38, 0xec, 0x3e,
  0xe4, 0xd0, 0xbb, 0x3e, 0x8e, 0x71, 0x05, 0x3f, 0x5d, 0x41, 0x5a, 0x3c,
  0xc5, 0x85, 0x82, 0x3e, 0xb0, 0x3b, 0xbd, 0x3e, 0x6e, 0xb1, 0x07, 0x3e,
  0x55, 0x6a, 0xab, 0xbe, 0x5d, 0xd5, 0x79, 0xbe, 0x77, 0xe9, 0x91, 0x3d,
  0xc4, 0x33, 0xb2, 0xbe, 0x6f, 0xe6, 0x6d, 0xbe, 0xe3, 0x6d, 0xe9, 0x3c,
  0x26, 0x51, 0xd0, 0x3e, 0x97, 0xfa, 0xf0, 0x3e, 0x46, 0x19, 0xe6, 0x3e,
  0x08, 0x5b, 0x8e, 0x3e, 0x71, 0xfc, 0x01, 0x3e, 0x10, 0x61, 0xad, 0xbb,
  0x4d, 0xbe, 0xd2, 0x3d, 0xd0, 0xbd, 0x45, 0x3c, 0xc4, 0xa7, 0x15, 0x3f,
  0x9f, 0x06, 0x52, 0x3c, 0x0e, 0x87, 0x44, 0xbe, 0x4c, 0xa5, 0x9f, 0xbe,
  0x3e, 0x1f, 0xf0, 0xbd, 0x36, 0xe8, 0xf8, 0xbd, 0xbf, 0x65, 0x1f, 0xbe,
  0x79, 0x77, 0xcb, 0xbd, 0xbf, 0x3a, 0xa1, 0xbd, 0x74, 0x57, 0x1c, 0x3d,
  0x77, 0x80, 0x2d, 0xbe, 0xc9, 0x59, 0xaa, 0x3d, 0x08, 0x84, 0x44, 0xbe,
  0x2e, 0x98, 0xfc, 0x3d, 0x09, 0x65, 0x85, 0x3e, 0xdf, 0x25, 0x80, 0x3e,
  0xf4, 0xd8, 0xf7, 0xbd, 0xff, 0xc4, 0x56, 0x3d, 0xf1, 0x91, 0xac, 0x3d,
  0x08, 0x6d, 0x07, 0x3e, 0x56, 0x73, 0x2d, 0xbe, 0xe4, 0xc5, 0xbb, 0x3c,
  0x3a, 0x47, 0x52, 0x3c, 0xd8, 0x43, 0xba, 0x3e, 0xe5, 0x35, 0xdd, 0xbd,
  0xc9, 0x1e, 0x0c, 0xbf, 0xc3, 0x8e, 0x46, 0x3d, 0xee, 0x17, 0x17, 0xbe,
  0x66, 0x1c, 0xe2, 0x3d, 0xa8, 0x74, 0x17, 0xbe, 0x2c, 0x63, 0x7f, 0x3e,
  0xf9, 0x94, 0x4b, 0xbc, 0x0a, 0x8b, 0x32, 0x3e, 0x51, 0x70, 0xf4, 0xbc,
  0x4e, 0x85, 0x26, 0x3e, 0x05, 0xb4, 0x5e, 0xbc, 0x67, 0x5b, 0x4c, 0x3e,
  0x51, 0x3d, 0xa6, 0xbd, 0x7d, 0x13, 0xad, 0xbc, 0x2e, 0xf1, 0xf6, 0x3e,
  0x18, 0x10, 0x86, 0xbe, 0x16, 0xff, 0xa5, 0xbe, 0x9d, 0x6d, 0x13, 0x3e,
  0xb3, 0x4b, 0x59, 0x3e, 0xd2, 0x0e, 0x34, 0xbb, 0x60, 0x22, 0x18, 0xbe,
  0x4c, 0x75, 0xa9, 0x3e, 0xa0, 0xbf, 0x10, 0xbe, 0x62, 0xdc, 0x06, 0x3e,
  0x2b, 0xa0, 0xfe, 0xbc, 0xd2, 0x28, 0x46, 0x3d, 0x68, 0xe7, 0xbe, 0x3e,
  0x2b, 0xf4, 0x5f, 0xbe, 0x1a, 0x45, 0x94, 0xbd, 0x6c, 0xb1, 0x4e, 0x3e,
  0xdd, 0x98, 0xe4, 0x3d, 0xbc, 0x78, 0xac, 0xbe, 0x78, 0x28, 0x43, 0x3e,
  0x1d, 0xa3, 0x22, 0x3e, 0x6c, 0xbf, 0x00, 0x3d, 0xbc, 0x5b, 0xe5, 0xbd,
  0x6c, 0xe0, 0x4d, 0x3e, 0x74, 0xb6, 0x26, 0x3e, 0xf9, 0x38, 0xe2, 0xbd,
  0x31, 0x7b, 0x1d, 0x3e, 0x7c, 0x15, 0xdb, 0x3d, 0x13, 0x51, 0x3a, 0x3e,
  0x97, 0x66, 0x27, 0xbf, 0x24, 0x57, 0xd2, 0xbd, 0xca, 0x33, 0x08, 0x3e,
  0x6b, 0x99, 0xd5, 0xbd, 0x04, 0xcf, 0x1d, 0xbe, 0x0c, 0x03, 0x19, 0xbe,
  0x54, 0xcb, 0x59, 0x3e, 0x90, 0x60, 0xb1, 0xbe, 0x5e, 0x71, 0xf6, 0xbd,
  0x4f, 0xa1, 0x39, 0x3c, 0x17, 0xee, 0xa7, 0x3e, 0xbd, 0x48, 0x77, 0x3e,
  0xf7, 0x1b, 0x19, 0x3e, 0x20, 0x89, 0x56, 0xbc, 0x03, 0xd0, 0xe4, 0xbd,
  0x6a, 0x35, 0xde, 0x3d, 0xec, 0xab, 0x07, 0xbf, 0xe0, 0xf7, 0x2c, 0xbe,
  0x28, 0xd9, 0x00, 0x3e, 0xa3, 0x07, 0x82, 0xbe, 0x26, 0x27, 0x9b, 0x3e,
  0x94, 0x75, 0x3f, 0x3e, 0x7a, 0x5f, 0x67, 0x3e, 0x40, 0xda, 0x0a, 0xbf,
  0x8f, 0x31, 0x02, 0x3d, 0x18, 0xb0, 0xc0, 0xbe, 0xd3, 0x06, 0xce, 0xbd,
  0xcd, 0x94, 0x2c, 0x3e, 0x67, 0x82, 0x25, 0x3e, 0x3f, 0x86, 0x7c, 0x3b,
  0x27, 0xdd, 0xb3, 0xbd, 0x30, 0xf4, 0x90, 0x3e, 0x1c, 0xb0, 0xb2, 0xbe,
  0xbd, 0xc0, 0xe8, 0xbe, 0x3d, 0x50, 0xcd, 0x3e, 0x21, 0x05, 0xbb, 0xbe,
  0x10, 0xc8, 0xcc, 0x3d, 0x97, 0x3d, 0x0b, 0xbe, 0x96, 0xa6, 0x5b, 0x3e,
  0x56, 0xac, 0xa1, 0x3e, 0x80, 0xa9, 0x2b, 0xbe, 0x25, 0x80, 0x25, 0xbc,
  0x95, 0xc5, 0xf7, 0x3e, 0x87, 0xe3, 0x5b, 0x3c, 0xc1, 0x0b, 0xa7, 0x3e,
  0xa5, 0x61, 0x7b, 0xbd, 0xe8, 0xf3, 0x4e, 0x3e, 0xbb, 0xe7, 0xa2, 0x3d,
  0xcc, 0x1f, 0x58, 0xbe, 0x0f, 0x45, 0x93, 0xbc, 0x29, 0xef, 0x4e, 0x3d,
  0x21, 0x32, 0x9b, 0x3e, 0x63, 0x88, 0x12, 0xbe, 0xab, 0x44, 0x7b, 0x3e,
  0xf9, 0x87, 0x8f, 0x3d, 0xb8, 0x96, 0xd3, 0xbd, 0xb2, 0x72, 0xba, 0x3d,
  0x74, 0xdf, 0x2a, 0x3e, 0x0e, 0xd2, 0xa4, 0x3e, 0x64, 0x6c, 0x80, 0x3e,
  0xfa, 0xba, 0x44, 0xbe, 0xd7, 0xef, 0xac, 0xbe, 0xe3, 0xac, 0x40, 0x3e,
  0xfb, 0x13, 0x93, 0x3e, 0x6c, 0xaa, 0x82, 0x3e, 0x96, 0x79, 0x29, 0xbe,
  0xa9, 0x1e, 0xdb, 0x3d, 0x01, 0x27, 0x89, 0xbd, 0x7d, 0xe7, 0x05, 0x3e,
  0x05, 0xa4, 0x04, 0xbe, 0xdb, 0x4c, 0x48, 0x3e, 0x2e, 0x1b, 0xfc, 0xbe,
  0x60, 0xc7, 0xa5, 0x3a, 0x99, 0x0f, 0xcc, 0xbd, 0x48, 0x54, 0xf5, 0x3e,
  0xe4, 0x70, 0x18, 0x3e, 0xc5, 0xbf, 0xde, 0xbe, 0x4f, 0x46, 0x42, 0xbe,
  0x70, 0x9a, 0x34, 0x3e, 0x55, 0x89, 0x68, 0xbe, 0x26, 0x74, 0x37, 0xbc,
  0x82, 0xc0, 0xae, 0x3e, 0x4f, 0x78, 0x08, 0xbd, 0x79, 0xa3, 0x9e, 0x3e,
  0x3e, 0x7b, 0xae, 0x3e, 0x4e, 0x18, 0x22, 0x3e, 0x22, 0x47, 0x69, 0x3e,
  0xa7, 0x9a, 0xac, 0x3e, 0x65, 0xb5, 0x7b, 0x3d, 0xfd, 0x12, 0x60, 0x3e,
  0x0a, 0xb9, 0x57, 0x3c, 0xfb, 0xf5, 0x17, 0x3d, 0x9f, 0xf3, 0x1e, 0xbe,
  0x95, 0x7f, 0x39, 0xbe, 0x99, 0x0a, 0x03, 0x3e, 0x1b, 0x81, 0x27, 0xbd,
  0x4a, 0x03, 0x53, 0x3e, 0x36, 0x23, 0x7c, 0x3e, 0x65, 0x2d, 0xde, 0xbd,
  0xf9, 0xb5, 0xa9, 0xbb, 0x4b, 0x08, 0x45, 0xbe, 0x66, 0x83, 0xa1, 0xbe,
  0x9b, 0x7b, 0xed, 0x3c, 0xf1, 0x92, 0x8e, 0x3d, 0x79, 0x88, 0xaf, 0xbd,
  0x1c, 0x0e, 0x1d, 0x3d, 0x03, 0x44, 0x6e, 0x3e, 0xec, 0x88, 0x28, 0xbd,
  0xa3, 0x67, 0x54, 0xbe, 0x1f, 0xb8, 0x99, 0x3d, 0x25, 0x3e, 0x78, 0x3e,
  0x11, 0xa8, 0xad, 0xbe, 0xb2, 0x38, 0xcf, 0xbc, 0xaa, 0xda, 0xf9, 0xbd,
  0xc3, 0xb0, 0x54, 0x3e, 0x77, 0x0d, 0x91, 0xbe, 0x09, 0x94, 0x94, 0xbe,
  0x1f, 0x65, 0x9d, 0xbe, 0xad, 0x4e, 0x14, 0xbd, 0x97, 0xfc, 0xc1, 0x3d,
  0x33, 0x0b, 0x67, 0xbe, 0x09, 0x3c, 0x18, 0xbe, 0x1e, 0x84, 0xe6, 0xbd,
  0xd4, 0x8b, 0x18, 0x3e, 0x35, 0x53, 0x76, 0xbe, 0x45, 0x35, 0x90, 0xbe,
  0x38, 0x30, 0xf6, 0xbe, 0x63, 0x5e, 0x52, 0xbe, 0x23, 0x68, 0xa7, 0xbe,
  0x0e, 0x9e, 0x03, 0x3e, 0xa4, 0xa8, 0x0f, 0x3e, 0xea, 0x62, 0xef, 0x3c,
  0x56, 0xef, 0x66, 0xbe, 0xf7, 0xc5, 0x0c, 0xbe, 0xc8, 0x4e, 0x71, 0x3c,
  0x9f, 0x24, 0x31, 0xbf, 0xef, 0xc5, 0x13, 0x3d, 0x33, 0xd9, 0x9d, 0xbe,
  0xf2, 0xbe, 0x0b, 0x3e, 0xa7, 0xf6, 0xda, 0x3d, 0x8c, 0x97, 0x14, 0x3e,
  0x16, 0x59, 0xe4, 0xbc, 0x5b, 0x13, 0x63, 0x3c, 0x53, 0xa4, 0xea, 0xbd,
  0xd2, 0x72, 0x83, 0x3e, 0xff, 0xb1, 0x30, 0x3d, 0xca, 0x09, 0x0c, 0xbc,
  0x20, 0x40, 0x71, 0x3e, 0xed, 0x64, 0x97, 0xbe, 0x35, 0x94, 0x4a, 0xbb,
  0xb8, 0x7d, 0x5b, 0x3e, 0xe9, 0x60, 0x1a, 0xbf, 0x0a, 0x31, 0xce, 0xbd,
  0xe3, 0xaa, 0xdd, 0x3d, 0x67, 0x01, 0x01, 0xbe, 0x86, 0x6d, 0x95, 0xbe,
  0xa4, 0x38, 0xd3, 0x3e, 0x94, 0x0e, 0xc2, 0x3e, 0xe6, 0x70, 0x73, 0x3e,
  0xb5, 0x4f, 0x2d, 0x3e, 0xf0, 0x22, 0xb1, 0x3e, 0xc4, 0x2e, 0x8e, 0x3e,
  0xe3, 0x86, 0x92, 0x3d, 0xc1, 0x65, 0xdf, 0x3d, 0x4c, 0x5a, 0xb7, 0xbe,
  0x7e, 0xe3, 0x92, 0xbe, 0x62, 0x66, 0x80, 0x3e, 0x87, 0x5f, 0xf3, 0xbc,
  0xe0, 0x98, 0xc0, 0xbd, 0x54, 0x47, 0x89, 0xbc, 0x75, 0xa9, 0x98, 0xbd,
  0xc8, 0x3b, 0x4e, 0x3e, 0x64, 0xa8, 0xd1, 0x3c, 0x3d, 0xed, 0x02, 0x3f,
  0x19, 0x61, 0x1d, 0xbe, 0x7b, 0x0a, 0x3a, 0xbe, 0xba, 0x26, 0xa8, 0x3e,
  0x30, 0x78, 0xa3, 0x3e, 0x6d, 0xef, 0x61, 0x3e, 0x82, 0x38, 0x8c, 0xbd,
  0x8f, 0x86, 0x54, 0x3c, 0xc3, 0x0e, 0xe7, 0xbd, 0x98, 0xd7, 0x5f, 0xbe,
  0x65, 0x7c, 0x9e, 0x3d, 0x49, 0x43, 0xe8, 0xbe, 0x7a, 0x59, 0xa6, 0xbe,
  0xae, 0x60, 0x93, 0x3e, 0x32, 0x01, 0x14, 0xbd, 0x90, 0x5c, 0x5a, 0xbe,
  0xec, 0xc9, 0xaa, 0x3e, 0x89, 0xa4, 0x41, 0xbe, 0x93, 0xc5, 0x27, 0x3d,
  0xf2, 0xd6, 0xca, 0x3d, 0xba, 0x29, 0x99, 0xbe, 0x23, 0xe1, 0xe6, 0xbd,
  0x6a, 0x94, 0x88, 0x3e, 0xb3, 0xe9, 0xc5, 0xbd, 0xd4, 0xa9, 0x9f, 0x3e,
  0x0c, 0x91, 0x07, 0xbe, 0xa2, 0xaa, 0xca, 0xbe, 0xb2, 0x45, 0xd1, 0x3d,
  0x9c, 0x06, 0x3e, 0x3e, 0xfb, 0xa5, 0xb1, 0x3e, 0xd5, 0x76, 0x85, 0x3e,
  0x53, 0x52, 0x45, 0xbd, 0xdc, 0xd4, 0x48, 0x3d, 0x76, 0x2c, 0x12, 0xbf,
  0xd7, 0xa7, 0x00, 0xbe, 0x39, 0x79, 0x43, 0xbe, 0xd5, 0x6f, 0x8a, 0xbe,
  0xbd, 0x3b, 0x92, 0x3e, 0x96, 0x0a, 0xa8, 0x3e, 0xcd, 0xfc, 0x0a, 0x3d,
  0x45, 0x40, 0x23, 0x3b, 0x34, 0xc0, 0x37, 0x3e, 0xa7, 0x49, 0xf6, 0x3d,
  0x5f, 0x96, 0x7e, 0x3e, 0x63, 0xae, 0x49, 0x3f, 0x00, 0xab, 0x97, 0x3c,
  0x37, 0x58, 0x2d, 0xbe, 0x03, 0xfd, 0xd1, 0x3e, 0x19, 0x60, 0xd7, 0x3d,
  0x5b, 0x8d, 0x0b, 0xbf, 0x3c, 0xa6, 0x08, 0xbe, 0xfa, 0x44, 0xd0, 0xbd,
  0x62, 0x0d, 0x82, 0x3e, 0x09, 0xcd, 0x98, 0x3e, 0x1a, 0x80, 0xfc, 0x3d,
  0x4a, 0x5d, 0xa2, 0xbd, 0x31, 0xf0, 0xc6, 0xbe, 0x82, 0xff, 0xff, 0xff,
  0x04, 0x00, 0x00, 0x00, 0x0c, 0x00, 0x00, 0x00, 0xff, 0xff, 0xff, 0xff,
  0x08, 0x00, 0x00, 0x00, 0x10, 0x00, 0x00, 0x00, 0x9a, 0xff, 0xff, 0xff,
  0x04, 0x00, 0x00, 0x00, 0x0c, 0x00, 0x00, 0x00, 0xff, 0xff, 0xff, 0xff,
  0x06, 0x00, 0x00, 0x00, 0x08, 0x00, 0x00, 0x00, 0xb2, 0xff, 0xff, 0xff,
  0x04, 0x00, 0x00, 0x00, 0x40, 0x00, 0x00, 0x00, 0x7d, 0xf9, 0x34, 0x3e,
  0xd1, 0x7a, 0xcc, 0x3d, 0xd4, 0xed, 0x7f, 0xbc, 0x9c, 0x38, 0x28, 0xbd,
  0x61, 0x18, 0x9a, 0x3d, 0x1a, 0xd5, 0x93, 0x3d, 0x95, 0xa0, 0xc7, 0xbc,
  0x9f, 0x46, 0x9a, 0xbd, 0xff, 0xd1, 0xbb, 0x3d, 0x0f, 0x45, 0xf0, 0x3d,
  0x1e, 0xdf, 0xa0, 0x3d, 0x90, 0x03, 0xda, 0x3d, 0x86, 0x50, 0xa6, 0x3c,
  0x66, 0x69, 0x6b, 0x3d, 0xbc, 0x92, 0x3a, 0x3e, 0x29, 0x97, 0x6e, 0x3d,
  0x00, 0x00, 0x06, 0x00, 0x08, 0x00, 0x04, 0x00, 0x06, 0x00, 0x00, 0x00,
  0x04, 0x00, 0x00, 0x00, 0x20, 0x00, 0x00, 0x00, 0xc6, 0x95, 0xed, 0xbd,
  0x8d, 0xa0, 0x81, 0x3c, 0x7d, 0x60, 0x36, 0x3e, 0x1f, 0x9c, 0xa5, 0x3d,
  0xd2, 0x09, 0x63, 0x3d, 0xf5, 0x4e, 0x13, 0xbd, 0xb4, 0xa8, 0x0f, 0xbe,
  0x33, 0xd1, 0x12, 0xbe, 0x9c, 0xf3, 0xff, 0xff, 0xa0, 0xf3, 0xff, 0xff,
  0x0f, 0x00, 0x00, 0x00, 0x4d, 0x4c, 0x49, 0x52, 0x20, 0x43, 0x6f, 0x6e,
  0x76, 0x65, 0x72, 0x74, 0x65, 0x64, 0x2e, 0x00, 0x01, 0x00, 0x00, 0x00,
  0x14, 0x00, 0x00, 0x00, 0x00, 0x00, 0x0e, 0x00, 0x18, 0x00, 0x14, 0x00,
  0x10, 0x00, 0x0c, 0x00, 0x08, 0x00, 0x04, 0x00, 0x0e, 0x00, 0x00, 0x00,
  0x14, 0x00, 0x00, 0x00, 0x1c, 0x00, 0x00, 0x00, 0x68, 0x02, 0x00, 0x00,
  0x6c, 0x02, 0x00, 0x00, 0x70, 0x02, 0x00, 0x00, 0x04, 0x00, 0x00, 0x00,
  0x6d, 0x61, 0x69, 0x6e, 0x00, 0x00, 0x00, 0x00, 0x0a, 0x00, 0x00, 0x00,
  0x20, 0x02, 0x00, 0x00, 0xbc, 0x01, 0x00, 0x00, 0x84, 0x01, 0x00, 0x00,
  0x48, 0x01, 0x00, 0x00, 0x00, 0x01, 0x00, 0x00, 0xd8, 0x00, 0x00, 0x00,
  0xa4, 0x00, 0x00, 0x00, 0x60, 0x00, 0x00, 0x00, 0x28, 0x00, 0x00, 0x00,
  0x04, 0x00, 0x00, 0x00, 0xa6, 0xfe, 0xff, 0xff, 0x0c, 0x00, 0x00, 0x00,
  0x10, 0x00, 0x00, 0x00, 0x05, 0x00, 0x00, 0x00, 0x01, 0x00, 0x00, 0x00,
  0x16, 0x00, 0x00, 0x00, 0x01, 0x00, 0x00, 0x00, 0x15, 0x00, 0x00, 0x00,
  0x96, 0xfe, 0xff, 0xff, 0x14, 0x00, 0x00, 0x00, 0x00, 0x00, 0x00, 0x08,
  0x10, 0x00, 0x00, 0x00, 0x14, 0x00, 0x00, 0x00, 0x04, 0x00, 0x00, 0x00,
  0x58, 0xf4, 0xff, 0xff, 0x01, 0x00, 0x00, 0x00, 0x15, 0x00, 0x00, 0x00,
  0x03, 0x00, 0x00, 0x00, 0x14, 0x00, 0x00, 0x00, 0x07, 0x00, 0x00, 0x00,
  0x09, 0x00, 0x00, 0x00, 0xca, 0xfe, 0xff, 0xff, 0x1c, 0x00, 0x00, 0x00,
  0x00, 0x00, 0x00, 0x08, 0x1c, 0x00, 0x00, 0x00, 0x20, 0x00, 0x00, 0x00,
  0x04, 0x00, 0x00, 0x00, 0x00, 0x00, 0x06, 0x00, 0x08, 0x00, 0x07, 0x00,
  0x06, 0x00, 0x00, 0x00, 0x00, 0x00, 0x00, 0x01, 0x01, 0x00, 0x00, 0x00,
  0x14, 0x00, 0x00, 0x00, 0x03, 0x00, 0x00, 0x00, 0x13, 0x00, 0x00, 0x00,
  0x08, 0x00, 0x00, 0x00, 0x0a, 0x00, 0x00, 0x00, 0x0a, 0xff, 0xff, 0xff,
  0x14, 0x00, 0x00, 0x00, 0x00, 0x00, 0x00, 0x1b, 0x10, 0x00, 0x00, 0x00,
  0x14, 0x00, 0x00, 0x00, 0x03, 0x00, 0x00, 0x00, 0xcc, 0xf4, 0xff, 0xff,
  0x01, 0x00, 0x00, 0x00, 0x13, 0x00, 0x00, 0x00, 0x02, 0x00, 0x00, 0x00,
  0x12, 0x00, 0x00, 0x00, 0x0b, 0x00, 0x00, 0x00, 0x6a, 0xff, 0xff, 0xff,
  0x0c, 0x00, 0x00, 0x00, 0x10, 0x00, 0x00, 0x00, 0x02, 0x00, 0x00, 0x00,
  0x01, 0x00, 0x00, 0x00, 0x12, 0x00, 0x00, 0x00, 0x02, 0x00, 0x00, 0x00,
  0x11, 0x00, 0x00, 0x00, 0x03, 0x00, 0x00, 0x00, 0x5e, 0xff, 0xff, 0xff,
  0x14, 0x00, 0x00, 0x00, 0x00, 0x00, 0x00, 0x01, 0x20, 0x00, 0x00, 0x00,
  0x24, 0x00, 0x00, 0x00, 0x01, 0x00, 0x00, 0x00, 0x50, 0xff, 0xff, 0xff,
  0x00, 0x00, 0x00, 0x01, 0x01, 0x00, 0x00, 0x00, 0x01, 0x00, 0x00, 0x00,
  0x00, 0x00, 0x00, 0x01, 0x01, 0x00, 0x00, 0x00, 0x11, 0x00, 0x00, 0x00,
  0x03, 0x00, 0x00, 0x00, 0x10, 0x00, 0x00, 0x00, 0x05, 0x00, 0x00, 0x00,
  0x01, 0x00, 0x00, 0x00, 0x42, 0xff, 0xff, 0xff, 0x10, 0x00, 0x00, 0x00,
  0x00, 0x00, 0x00, 0x34, 0x0c, 0x00, 0x00, 0x00, 0x10, 0x00, 0x00, 0x00,
  0x60, 0xf5, 0xff, 0xff, 0x01, 0x00, 0x00, 0x00, 0x10, 0x00, 0x00, 0x00,
  0x02, 0x00, 0x00, 0x00, 0x0f, 0x00, 0x00, 0x00, 0x0c, 0x00, 0x00, 0x00,
  0x00, 0x00, 0x0a, 0x00, 0x10, 0x00, 0x0c, 0x00, 0x08, 0x00, 0x04, 0x00,
  0x0a, 0x00, 0x00, 0x00, 0x0c, 0x00, 0x00, 0x00, 0x10, 0x00, 0x00, 0x00,
  0x02, 0x00, 0x00, 0x00, 0x01, 0x00, 0x00, 0x00, 0x0f, 0x00, 0x00, 0x00,
  0x02, 0x00, 0x00, 0x00, 0x0e, 0x00, 0x00, 0x00, 0x04, 0x00, 0x00, 0x00,
  0x00, 0x00, 0x0e, 0x00, 0x18, 0x00, 0x14, 0x00, 0x10, 0x00, 0x0c, 0x00,
  0x0b, 0x00, 0x04, 0x00, 0x0e, 0x00, 0x00, 0x00, 0x20, 0x00, 0x00, 0x00,
  0x00, 0x00, 0x00, 0x01, 0x2c, 0x00, 0x00, 0x00, 0x30, 0x00, 0x00, 0x00,
  0x01, 0x00, 0x00, 0x00, 0x0c, 0x00, 0x14, 0x00, 0x13, 0x00, 0x0c, 0x00,
  0x08, 0x00, 0x07, 0x00, 0x0c, 0x00, 0x00, 0x00, 0x00, 0x00, 0x00, 0x01,
  0x01, 0x00, 0x00, 0x00, 0x01, 0x00, 0x00, 0x00, 0x00, 0x00, 0x00, 0x01,
  0x01, 0x00, 0x00, 0x00, 0x0e, 0x00, 0x00, 0x00, 0x03, 0x00, 0x00, 0x00,
  0x0d, 0x00, 0x00, 0x00, 0x06, 0x00, 0x00, 0x00, 0x02, 0x00, 0x00, 0x00,
  0x00, 0x00, 0x0e, 0x00, 0x14, 0x00, 0x00, 0x00, 0x10, 0x00, 0x0c, 0x00,
  0x0b, 0x00, 0x04, 0x00, 0x0e, 0x00, 0x00, 0x00, 0x10, 0x00, 0x00, 0x00,
  0x00, 0x00, 0x00, 0x34, 0x0c, 0x00, 0x00, 0x00, 0x10, 0x00, 0x00, 0x00,
  0x2c, 0xf6, 0xff, 0xff, 0x01, 0x00, 0x00, 0x00, 0x0d, 0x00, 0x00, 0x00,
  0x02, 0x00, 0x00, 0x00, 0x00, 0x00, 0x00, 0x00, 0x0c, 0x00, 0x00, 0x00,
  0x01, 0x00, 0x00, 0x00, 0x16, 0x00, 0x00, 0x00, 0x01, 0x00, 0x00, 0x00,
  0x00, 0x00, 0x00, 0x00, 0x17, 0x00, 0x00, 0x00, 0x7c, 0x09, 0x00, 0x00,
  0x28, 0x09, 0x00, 0x00, 0xd4, 0x08, 0x00, 0x00, 0x94, 0x08, 0x00, 0x00,
  0x3c, 0x08, 0x00, 0x00, 0xf4, 0x07, 0x00, 0x00, 0xac, 0x07, 0x00, 0x00,
  0x6c, 0x07, 0x00, 0x00, 0x2c, 0x07, 0x00, 0x00, 0xf0, 0x06, 0x00, 0x00,
  0xb4, 0x06, 0x00, 0x00, 0x74, 0x06, 0x00, 0x00, 0x34, 0x06, 0x00, 0x00,
  0xb0, 0x05, 0x00, 0x00, 0xc8, 0x04, 0x00, 0x00, 0x10, 0x04, 0x00, 0x00,
  0x8c, 0x03, 0x00, 0x00, 0xa4, 0x02, 0x00, 0x00, 0xec, 0x01, 0x00, 0x00,
  0x80, 0x01, 0x00, 0x00, 0xe0, 0x00, 0x00, 0x00, 0x60, 0x00, 0x00, 0x00,
  0x04, 0x00, 0x00, 0x00, 0xf6, 0xf6, 0xff, 0xff, 0x00, 0x00, 0x00, 0x01,
  0x14, 0x00, 0x00, 0x00, 0x1c, 0x00, 0x00, 0x00, 0x1c, 0x00, 0x00, 0x00,
  0x17, 0x00, 0x00, 0x00, 0x34, 0x00, 0x00, 0x00, 0x02, 0x00, 0x00, 0x00,
  0xff, 0xff, 0xff, 0xff, 0x01, 0x00, 0x00, 0x00, 0xdc, 0xf6, 0xff, 0xff,
  0x1b, 0x00, 0x00, 0x00, 0x53, 0x74, 0x61, 0x74, 0x65, 0x66, 0x75, 0x6c,
  0x50, 0x61, 0x72, 0x74, 0x69, 0x74, 0x69, 0x6f, 0x6e, 0x65, 0x64, 0x43,
  0x61, 0x6c, 0x6c, 0x5f, 0x31, 0x3a, 0x30, 0x00, 0x02, 0x00, 0x00, 0x00,
  0x01, 0x00, 0x00, 0x00, 0x01, 0x00, 0x00, 0x00, 0x4e, 0xf7, 0xff, 0xff,
  0x00, 0x00, 0x00, 0x01, 0x14, 0x00, 0x00, 0x00, 0x1c, 0x00, 0x00, 0x00,
  0x1c, 0x00, 0x00, 0x00, 0x16, 0x00, 0x00, 0x00, 0x58, 0x00, 0x00, 0x00,
  0x02, 0x00, 0x00, 0x00, 0xff, 0xff, 0xff, 0xff, 0x01, 0x00, 0x00, 0x00,
  0x34, 0xf7, 0xff, 0xff, 0x3c, 0x00, 0x00, 0x00, 0x73, 0x65, 0x71, 0x75,
  0x65, 0x6e, 0x74, 0x69, 0x61, 0x6c, 0x5f, 0x33, 0x5f, 0x31, 0x2f, 0x64,
  0x65, 0x6e, 0x73, 0x65, 0x5f, 0x37, 0x5f, 0x31, 0x2f, 0x4d, 0x61, 0x74,
  0x4d, 0x75, 0x6c, 0x3b, 0x73, 0x65, 0x71, 0x75, 0x65, 0x6e, 0x74, 0x69,
  0x61, 0x6c, 0x5f, 0x33, 0x5f, 0x31, 0x2f, 0x64, 0x65, 0x6e, 0x73, 0x65,
  0x5f, 0x37, 0x5f, 0x31, 0x2f, 0x41, 0x64, 0x64, 0x00, 0x00, 0x00, 0x00,
  0x02, 0x00, 0x00, 0x00, 0x01, 0x00, 0x00, 0x00, 0x01, 0x00, 0x00, 0x00,
  0xca, 0xf7, 0xff, 0xff, 0x00, 0x00, 0x00, 0x01, 0x14, 0x00, 0x00, 0x00,
  0x1c, 0x00, 0x00, 0x00, 0x1c, 0x00, 0x00, 0x00, 0x15, 0x00, 0x00, 0x00,
  0x78, 0x00, 0x00, 0x00, 0x02, 0x00, 0x00, 0x00, 0xff, 0xff, 0xff, 0xff,
  0x08, 0x00, 0x00, 0x00, 0xb0, 0xf7, 0xff, 0xff, 0x5e, 0x00, 0x00, 0x00,
  0x73, 0x65, 0x71, 0x75, 0x65, 0x6e, 0x74, 0x69, 0x61, 0x6c, 0x5f, 0x33,
  0x5f, 0x31, 0x2f, 0x64, 0x65, 0x6e, 0x73, 0x65, 0x5f, 0x36, 0x5f, 0x31,
  0x2f, 0x4d, 0x61, 0x74, 0x4d, 0x75, 0x6c, 0x3b, 0x73, 0x65, 0x71, 0x75,
  0x65, 0x6e, 0x74, 0x69, 0x61, 0x6c, 0x5f, 0x33, 0x5f, 0x31, 0x2f, 0x64,
  0x65, 0x6e, 0x73, 0x65, 0x5f, 0x36, 0x5f, 0x31, 0x2f, 0x52, 0x65, 0x6c,
  0x75, 0x3b, 0x73, 0x65, 0x71, 0x75, 0x65, 0x6e, 0x74, 0x69, 0x61, 0x6c,
  0x5f, 0x33, 0x5f, 0x31, 0x2f, 0x64, 0x65, 0x6e, 0x73, 0x65, 0x5f, 0x36,
  0x5f, 0x31, 0x2f, 0x42, 0x69, 0x61, 0x73, 0x41, 0x64, 0x64, 0x00, 0x00,
  0x02, 0x00, 0x00, 0x00, 0x01, 0x00, 0x00, 0x00, 0x08, 0x00, 0x00, 0x00,
  0x66, 0xf8, 0xff, 0xff, 0x00, 0x00, 0x00, 0x01, 0x14, 0x00, 0x00, 0x00,
  0x1c, 0x00, 0x00, 0x00, 0x1c, 0x00, 0x00, 0x00, 0x14, 0x00, 0x00, 0x00,
  0x44, 0x00, 0x00, 0x00, 0x02, 0x00, 0x00, 0x00, 0xff, 0xff, 0xff, 0xff,
  0x08, 0x00, 0x00, 0x00, 0x4c, 0xf8, 0xff, 0xff, 0x2b, 0x00, 0x00, 0x00,
  0x73, 0x65, 0x71, 0x75, 0x65, 0x6e, 0x74, 0x69, 0x61, 0x6c, 0x5f, 0x33,
  0x5f, 0x31, 0x2f, 0x67, 0x6c, 0x6f, 0x62, 0x61, 0x6c, 0x5f, 0x6d, 0x61,
  0x78, 0x5f, 0x70, 0x6f, 0x6f, 0x6c, 0x69, 0x6e, 0x67, 0x31, 0x64, 0x5f,
  0x33, 0x5f, 0x31, 0x2f, 0x4d, 0x61, 0x78, 0x00, 0x02, 0x00, 0x00, 0x00,
  0x01, 0x00, 0x00, 0x00, 0x08, 0x00, 0x00, 0x00, 0xce, 0xf8, 0xff, 0xff,
  0x00, 0x00, 0x00, 0x01, 0x14, 0x00, 0x00, 0x00, 0x20, 0x00, 0x00, 0x00,
  0x20, 0x00, 0x00, 0x00, 0x13, 0x00, 0x00, 0x00, 0x8c, 0x00, 0x00, 0x00,
  0x03, 0x00, 0x00, 0x00, 0xff, 0xff, 0xff, 0xff, 0x06, 0x00, 0x00, 0x00,
  0x08, 0x00, 0x00, 0x00, 0xb8, 0xf8, 0xff, 0xff, 0x6f, 0x00, 0x00, 0x00,
  0x73, 0x65, 0x71, 0x75, 0x65, 0x6e, 0x74, 0x69, 0x61, 0x6c, 0x5f, 0x33,
  0x5f, 0x31, 0x2f, 0x63, 0x6f, 0x6e, 0x76, 0x31, 0x64, 0x5f, 0x37, 0x5f,
  0x31, 0x2f, 0x52, 0x65, 0x6c, 0x75, 0x3b, 0x73, 0x65, 0x71, 0x75, 0x65,
  0x6e, 0x74, 0x69, 0x61, 0x6c, 0x5f, 0x33, 0x5f, 0x31, 0x2f, 0x63, 0x6f,
  0x6e, 0x76, 0x31, 0x64, 0x5f, 0x37, 0x5f, 0x31, 0x2f, 0x42, 0x69, 0x61,
  0x73, 0x41, 0x64, 0x64, 0x3b, 0x73, 0x65, 0x71, 0x75, 0x65, 0x6e, 0x74,
  0x69, 0x61, 0x6c, 0x5f, 0x33, 0x5f, 0x31, 0x2f, 0x63, 0x6f, 0x6e, 0x76,
  0x31, 0x64, 0x5f, 0x37, 0x5f, 0x31, 0x2f, 0x63, 0x6f, 0x6e, 0x76, 0x6f,
  0x6c, 0x75, 0x74, 0x69, 0x6f, 0x6e, 0x2f, 0x53, 0x71, 0x75, 0x65, 0x65,
  0x7a, 0x65, 0x3b, 0x00, 0x03, 0x00, 0x00, 0x00, 0x01, 0x00, 0x00, 0x00,
  0x06, 0x00, 0x00, 0x00, 0x08, 0x00, 0x00, 0x00, 0x82, 0xf9, 0xff, 0xff,
  0x00, 0x00, 0x00, 0x01, 0x14, 0x00, 0x00, 0x00, 0x24, 0x00, 0x00, 0x00,
  0x24, 0x00, 0x00, 0x00, 0x12, 0x00, 0x00, 0x00, 0xb8, 0x00, 0x00, 0x00,
  0x04, 0x00, 0x00, 0x00, 0xff, 0xff, 0xff, 0xff, 0x01, 0x00, 0x00, 0x00,
  0x06, 0x00, 0x00, 0x00, 0x08, 0x00, 0x00, 0x00, 0x70, 0xf9, 0xff, 0xff,
  0x95, 0x00, 0x00, 0x00, 0x73, 0x65, 0x71, 0x75, 0x65, 0x6e, 0x74, 0x69,
  0x61, 0x6c, 0x5f, 0x33, 0x5f, 0x31, 0x2f, 0x63, 0x6f, 0x6e, 0x76, 0x31,
  0x64, 0x5f, 0x37, 0x5f, 0x31, 0x2f, 0x52, 0x65, 0x6c, 0x75, 0x3b, 0x73,
  0x65, 0x71, 0x75, 0x65, 0x6e, 0x74, 0x69, 0x61, 0x6c, 0x5f, 0x33, 0x5f,
  0x31, 0x2f, 0x63, 0x6f, 0x6e, 0x76, 0x31, 0x64, 0x5f, 0x37, 0x5f, 0x31,
  0x2f, 0x42, 0x69, 0x61, 0x73, 0x41, 0x64, 0x64, 0x3b, 0x73, 0x65, 0x71,
  0x75, 0x65, 0x6e, 0x74, 0x69, 0x61, 0x6c, 0x5f, 0x33, 0x5f, 0x31, 0x2f,
  0x63, 0x6f, 0x6e, 0x76, 0x31, 0x64, 0x5f, 0x37, 0x5f, 0x31, 0x2f, 0x63,
  0x6f, 0x6e, 0x76, 0x6f, 0x6c, 0x75, 0x74, 0x69, 0x6f, 0x6e, 0x2f, 0x53,
  0x71, 0x75, 0x65, 0x65, 0x7a, 0x65, 0x3b, 0x3b, 0x73, 0x65, 0x71, 0x75,
  0x65, 0x6e, 0x74, 0x69, 0x61, 0x6c, 0x5f, 0x33, 0x5f, 0x31, 0x2f, 0x63,
  0x6f, 0x6e, 0x76, 0x31, 0x64, 0x5f, 0x37, 0x5f, 0x31, 0x2f, 0x63, 0x6f,
  0x6e, 0x76, 0x6f, 0x6c, 0x75, 0x74, 0x69, 0x6f, 0x6e, 0x00, 0x00, 0x00,
  0x04, 0x00, 0x00, 0x00, 0x01, 0x00, 0x00, 0x00, 0x01, 0x00, 0x00, 0x00,
  0x06, 0x00, 0x00, 0x00, 0x08, 0x00, 0x00, 0x00, 0x66, 0xfa, 0xff, 0xff,
  0x00, 0x00, 0x00, 0x01, 0x14, 0x00, 0x00, 0x00, 0x24, 0x00, 0x00, 0x00,
  0x24, 0x00, 0x00, 0x00, 0x11, 0x00, 0x00, 0x00, 0x54, 0x00, 0x00, 0x00,
  0x04, 0x00, 0x00, 0x00, 0xff, 0xff, 0xff, 0xff, 0x01, 0x00, 0x00, 0x00,
  0x08, 0x00, 0x00, 0x00, 0x10, 0x00, 0x00, 0x00, 0x54, 0xfa, 0xff, 0xff,
  0x30, 0x00, 0x00, 0x00, 0x73, 0x65, 0x71, 0x75, 0x65, 0x6e, 0x74, 0x69,
  0x61, 0x6c, 0x5f, 0x33, 0x5f, 0x31, 0x2f, 0x63, 0x6f, 0x6e, 0x76, 0x31,
  0x64, 0x5f, 0x37, 0x5f, 0x31, 0x2f, 0x63, 0x6f, 0x6e, 0x76, 0x6f, 0x6c,
  0x75, 0x74, 0x69, 0x6f, 0x6e, 0x2f, 0x45, 0x78, 0x70, 0x61, 0x6e, 0x64,
  0x44, 0x69, 0x6d, 0x73, 0x00, 0x00, 0x00, 0x00, 0x04, 0x00, 0x00, 0x00,
  0x01, 0x00, 0x00, 0x00, 0x01, 0x00, 0x00, 0x00, 0x08, 0x00, 0x00, 0x00,
  0x10, 0x00, 0x00, 0x00, 0xe6, 0xfa, 0xff, 0xff, 0x00, 0x00, 0x00, 0x01,
  0x14, 0x00, 0x00, 0x00, 0x20, 0x00, 0x00, 0x00, 0x20, 0x00, 0x00, 0x00,
  0x10, 0x00, 0x00, 0x00, 0x8c, 0x00, 0x00, 0x00, 0x03, 0x00, 0x00, 0x00,
  0xff, 0xff, 0xff, 0xff, 0x08, 0x00, 0x00, 0x00, 0x10, 0x00, 0x00, 0x00,
  0xd0, 0xfa, 0xff, 0xff, 0x6f, 0x00, 0x00, 0x00, 0x73, 0x65, 0x71, 0x75,
  0x65, 0x6e, 0x74, 0x69, 0x61, 0x6c, 0x5f, 0x33, 0x5f, 0x31, 0x2f, 0x63,
  0x6f, 0x6e, 0x76, 0x31, 0x64, 0x5f, 0x36, 0x5f, 0x31, 0x2f, 0x52, 0x65,
  0x6c, 0x75, 0x3b, 0x73, 0x65, 0x71, 0x75, 0x65, 0x6e, 0x74, 0x69, 0x61,
  0x6c, 0x5f, 0x33, 0x5f, 0x31, 0x2f, 0x63, 0x6f, 0x6e, 0x76, 0x31, 0x64,
  0x5f, 0x36, 0x5f, 0x31, 0x2f, 0x42, 0x69, 0x61, 0x73, 0x41, 0x64, 0x64,
  0x3b, 0x73, 0x65, 0x71, 0x75, 0x65, 0x6e, 0x74, 0x69, 0x61, 0x6c, 0x5f,
  0x33, 0x5f, 0x31, 0x2f, 0x63, 0x6f, 0x6e, 0x76, 0x31, 0x64, 0x5f, 0x36,
  0x5f, 0x31, 0x2f, 0x63, 0x6f, 0x6e, 0x76, 0x6f, 0x6c, 0x75, 0x74, 0x69,
  0x6f, 0x6e, 0x2f, 0x53, 0x71, 0x75, 0x65, 0x65, 0x7a, 0x65, 0x3b, 0x00,
  0x03, 0x00, 0x00, 0x00, 0x01, 0x00, 0x00, 0x00, 0x08, 0x00, 0x00, 0x00,
  0x10, 0x00, 0x00, 0x00, 0x9a, 0xfb, 0xff, 0xff, 0x00, 0x00, 0x00, 0x01,
  0x14, 0x00, 0x00, 0x00, 0x24, 0x00, 0x00, 0x00, 0x24, 0x00, 0x00, 0x00,
  0x0f, 0x00, 0x00, 0x00, 0xb8, 0x00, 0x00, 0x00, 0x04, 0x00, 0x00, 0x00,
  0xff, 0xff, 0xff, 0xff, 0x01, 0x00, 0x00, 0x00, 0x08, 0x00, 0x00, 0x00,
  0x10, 0x00, 0x00, 0x00, 0x88, 0xfb, 0xff, 0xff, 0x95, 0x00, 0x00, 0x00,
  0x73, 0x65, 0x71, 0x75, 0x65, 0x6e, 0x74, 0x69, 0x61, 0x6c, 0x5f, 0x33,
  0x5f, 0x31, 0x2f, 0x63, 0x6f, 0x6e, 0x76, 0x31, 0x64, 0x5f, 0x36, 0x5f,
  0x31, 0x2f, 0x52, 0x65, 0x6c, 0x75, 0x3b, 0x73, 0x65, 0x71, 0x75, 0x65,
  0x6e, 0x74, 0x69, 0x61, 0x6c, 0x5f, 0x33, 0x5f, 0x31, 0x2f, 0x63, 0x6f,
  0x6e, 0x76, 0x31, 0x64, 0x5f, 0x36, 0x5f, 0x31, 0x2f, 0x42, 0x69, 0x61,
  0x73, 0x41, 0x64, 0x64, 0x3b, 0x73, 0x65, 0x71, 0x75, 0x65, 0x6e, 0x74,
  0x69, 0x61, 0x6c, 0x5f, 0x33, 0x5f, 0x31, 0x2f, 0x63, 0x6f, 0x6e, 0x76,
  0x31, 0x64, 0x5f, 0x36, 0x5f, 0x31, 0x2f, 0x63, 0x6f, 0x6e, 0x76, 0x6f,
  0x6c, 0x75, 0x74, 0x69, 0x6f, 0x6e, 0x2f, 0x53, 0x71, 0x75, 0x65, 0x65,
  0x7a, 0x65, 0x3b, 0x3b, 0x73, 0x65, 0x71, 0x75, 0x65, 0x6e, 0x74, 0x69,
  0x61, 0x6c, 0x5f, 0x33, 0x5f, 0x31, 0x2f, 0x63, 0x6f, 0x6e, 0x76, 0x31,
  0x64, 0x5f, 0x36, 0x5f, 0x31, 0x2f, 0x63, 0x6f, 0x6e, 0x76, 0x6f, 0x6c,
  0x75, 0x74, 0x69, 0x6f, 0x6e, 0x00, 0x00, 0x00, 0x04, 0x00, 0x00, 0x00,
  0x01, 0x00, 0x00, 0x00, 0x01, 0x00, 0x00, 0x00, 0x08, 0x00, 0x00, 0x00,
  0x10, 0x00, 0x00, 0x00, 0x7e, 0xfc, 0xff, 0xff, 0x00, 0x00, 0x00, 0x01,
  0x14, 0x00, 0x00, 0x00, 0x24, 0x00, 0x00, 0x00, 0x24, 0x00, 0x00, 0x00,
  0x0e, 0x00, 0x00, 0x00, 0x54, 0x00, 0x00, 0x00, 0x04, 0x00, 0x00, 0x00,
  0xff, 0xff, 0xff, 0xff, 0x01, 0x00, 0x00, 0x00, 0x0a, 0x00, 0x00, 0x00,
  0x07, 0x00, 0x00, 0x00, 0x6c, 0xfc, 0xff, 0xff, 0x30, 0x00, 0x00, 0x00,
  0x73, 0x65, 0x71, 0x75, 0x65, 0x6e, 0x74, 0x69, 0x61, 0x6c, 0x5f, 0x33,
  0x5f, 0x31, 0x2f, 0x63, 0x6f, 0x6e, 0x76, 0x31, 0x64, 0x5f, 0x36, 0x5f,
  0x31, 0x2f, 0x63, 0x6f, 0x6e, 0x76, 0x6f, 0x6c, 0x75, 0x74, 0x69, 0x6f,
  0x6e, 0x2f, 0x45, 0x78, 0x70, 0x61, 0x6e, 0x64, 0x44, 0x69, 0x6d, 0x73,
  0x00, 0x00, 0x00, 0x00, 0x04, 0x00, 0x00, 0x00, 0x01, 0x00, 0x00, 0x00,
  0x01, 0x00, 0x00, 0x00, 0x0a, 0x00, 0x00, 0x00, 0x07, 0x00, 0x00, 0x00,
  0xda, 0xfd, 0xff, 0xff, 0x00, 0x00, 0x00, 0x01, 0x14, 0x00, 0x00, 0x00,
  0x14, 0x00, 0x00, 0x00, 0x0d, 0x00, 0x00, 0x00, 0x00, 0x00, 0x00, 0x02,
  0x20, 0x00, 0x00, 0x00, 0xd8, 0xfc, 0xff, 0xff, 0x10, 0x00, 0x00, 0x00,
  0x61, 0x72, 0x69, 0x74, 0x68, 0x2e, 0x63, 0x6f, 0x6e, 0x73, 0x74, 0x61,
  0x6e, 0x74, 0x31, 0x31, 0x00, 0x00, 0x00, 0x00, 0x00, 0x00, 0x00, 0x00,
  0x16, 0xfe, 0xff, 0xff, 0x00, 0x00, 0x00, 0x01, 0x14, 0x00, 0x00, 0x00,
  0x14, 0x00, 0x00, 0x00, 0x0c, 0x00, 0x00, 0x00, 0x00, 0x00, 0x00, 0x02,
  0x20, 0x00, 0x00, 0x00, 0x14, 0xfd, 0xff, 0xff, 0x10, 0x00, 0x00, 0x00,
  0x61, 0x72, 0x69, 0x74, 0x68, 0x2e, 0x63, 0x6f, 0x6e, 0x73, 0x74, 0x61,
  0x6e, 0x74, 0x31, 0x30, 0x00, 0x00, 0x00, 0x00, 0x00, 0x00, 0x00, 0x00,
  0xc6, 0xfd, 0xff, 0xff, 0x00, 0x00, 0x00, 0x01, 0x10, 0x00, 0x00, 0x00,
  0x10, 0x00, 0x00, 0x00, 0x0b, 0x00, 0x00, 0x00, 0x1c, 0x00, 0x00, 0x00,
  0x4c, 0xfd, 0xff, 0xff, 0x0f, 0x00, 0x00, 0x00, 0x61, 0x72, 0x69, 0x74,
  0x68, 0x2e, 0x63, 0x6f, 0x6e, 0x73, 0x74, 0x61, 0x6e, 0x74, 0x39, 0x00,
  0x01, 0x00, 0x00, 0x00, 0x08, 0x00, 0x00, 0x00, 0xfe, 0xfd, 0xff, 0xff,
  0x00, 0x00, 0x00, 0x01, 0x10, 0x00, 0x00, 0x00, 0x10, 0x00, 0x00, 0x00,
  0x0a, 0x00, 0x00, 0x00, 0x1c, 0x00, 0x00, 0x00, 0x84, 0xfd, 0xff, 0xff,
  0x0f, 0x00, 0x00, 0x00, 0x61, 0x72, 0x69, 0x74, 0x68, 0x2e, 0x63, 0x6f,
  0x6e, 0x73, 0x74, 0x61, 0x6e, 0x74, 0x38, 0x00, 0x01, 0x00, 0x00, 0x00,
  0x01, 0x00, 0x00, 0x00, 0x36, 0xfe, 0xff, 0xff, 0x00, 0x00, 0x00, 0x01,
  0x10, 0x00, 0x00, 0x00, 0x10, 0x00, 0x00, 0x00, 0x09, 0x00, 0x00, 0x00,
  0x1c, 0x00, 0x00, 0x00, 0xbc, 0xfd, 0xff, 0xff, 0x0f, 0x00, 0x00, 0x00,
  0x61, 0x72, 0x69, 0x74, 0x68, 0x2e, 0x63, 0x6f, 0x6e, 0x73, 0x74, 0x61,
  0x6e, 0x74, 0x37, 0x00, 0x02, 0x00, 0x00, 0x00, 0x08, 0x00, 0x00, 0x00,
  0x08, 0x00, 0x00, 0x00, 0x72, 0xfe, 0xff, 0xff, 0x00, 0x00, 0x00, 0x01,
  0x10, 0x00, 0x00, 0x00, 0x10, 0x00, 0x00, 0x00, 0x08, 0x00, 0x00, 0x00,
  0x1c, 0x00, 0x00, 0x00, 0xf8, 0xfd, 0xff, 0xff, 0x0f, 0x00, 0x00, 0x00,
  0x61, 0x72, 0x69, 0x74, 0x68, 0x2e, 0x63, 0x6f, 0x6e, 0x73, 0x74, 0x61,
  0x6e, 0x74, 0x36, 0x00, 0x02, 0x00, 0x00, 0x00, 0x01, 0x00, 0x00, 0x00,
  0x08, 0x00, 0x00, 0x00, 0xae, 0xfe, 0xff, 0xff, 0x00, 0x00, 0x00, 0x01,
  0x10, 0x00, 0x00, 0x00, 0x10, 0x00, 0x00, 0x00, 0x07, 0x00, 0x00, 0x00,
  0x1c, 0x00, 0x00, 0x00, 0x34, 0xfe, 0xff, 0xff, 0x0f, 0x00, 0x00, 0x00,
  0x61, 0x72, 0x69, 0x74, 0x68, 0x2e, 0x63, 0x6f, 0x6e, 0x73, 0x74, 0x61,
  0x6e, 0x74, 0x35, 0x00, 0x04, 0x00, 0x00, 0x00, 0x10, 0x00, 0x00, 0x00,
  0x01, 0x00, 0x00, 0x00, 0x03, 0x00, 0x00, 0x00, 0x07, 0x00, 0x00, 0x00,
  0xf2, 0xfe, 0xff, 0xff, 0x00, 0x00, 0x00, 0x01, 0x10, 0x00, 0x00, 0x00,
  0x10, 0x00, 0x00, 0x00, 0x06, 0x00, 0x00, 0x00, 0x1c, 0x00, 0x00, 0x00,
  0x78, 0xfe, 0xff, 0xff, 0x0f, 0x00, 0x00, 0x00, 0x61, 0x72, 0x69, 0x74,
  0x68, 0x2e, 0x63, 0x6f, 0x6e, 0x73, 0x74, 0x61, 0x6e, 0x74, 0x34, 0x00,
  0x04, 0x00, 0x00, 0x00, 0x08, 0x00, 0x00, 0x00, 0x01, 0x00, 0x00, 0x00,
  0x03, 0x00, 0x00, 0x00, 0x10, 0x00, 0x00, 0x00, 0xc2, 0xff, 0xff, 0xff,
  0x00, 0x00, 0x00, 0x01, 0x14, 0x00, 0x00, 0x00, 0x14, 0x00, 0x00, 0x00,
  0x05, 0x00, 0x00, 0x00, 0x00, 0x00, 0x00, 0x02, 0x1c, 0x00, 0x00, 0x00,
  0xc0, 0xfe, 0xff, 0xff, 0x0f, 0x00, 0x00, 0x00, 0x61, 0x72, 0x69, 0x74,
  0x68, 0x2e, 0x63, 0x6f, 0x6e, 0x73, 0x74, 0x61, 0x6e, 0x74, 0x33, 0x00,
  0x01, 0x00, 0x00, 0x00, 0x03, 0x00, 0x00, 0x00, 0x00, 0x00, 0x16, 0x00,
  0x1c, 0x00, 0x18, 0x00, 0x17, 0x00, 0x10, 0x00, 0x0c, 0x00, 0x08, 0x00,
  0x00, 0x00, 0x00, 0x00, 0x00, 0x00, 0x07, 0x00, 0x16, 0x00, 0x00, 0x00,
  0x00, 0x00, 0x00, 0x01, 0x14, 0x00, 0x00, 0x00, 0x14, 0x00, 0x00, 0x00,
  0x04, 0x00, 0x00, 0x00, 0x00, 0x00, 0x00, 0x02, 0x1c, 0x00, 0x00, 0x00,
  0x14, 0xff, 0xff, 0xff, 0x0f, 0x00, 0x00, 0x00, 0x61, 0x72, 0x69, 0x74,
  0x68, 0x2e, 0x63, 0x6f, 0x6e, 0x73, 0x74, 0x61, 0x6e, 0x74, 0x32, 0x00,
  0x01, 0x00, 0x00, 0x00, 0x03, 0x00, 0x00, 0x00, 0xc6, 0xff, 0xff, 0xff,
  0x00, 0x00, 0x00, 0x01, 0x10, 0x00, 0x00, 0x00, 0x10, 0x00, 0x00, 0x00,
  0x03, 0x00, 0x00, 0x00, 0x1c, 0x00, 0x00, 0x00, 0x4c, 0xff, 0xff, 0xff,
  0x0f, 0x00, 0x00, 0x00, 0x61, 0x72, 0x69, 0x74, 0x68, 0x2e, 0x63, 0x6f,
  0x6e, 0x73, 0x74, 0x61, 0x6e, 0x74, 0x31, 0x00, 0x01, 0x00, 0x00, 0x00,
  0x10, 0x00, 0x00, 0x00, 0x00, 0x00, 0x16, 0x00, 0x18, 0x00, 0x14, 0x00,
  0x00, 0x00, 0x10, 0x00, 0x0c, 0x00, 0x08, 0x00, 0x00, 0x00, 0x00, 0x00,
  0x00, 0x00, 0x07, 0x00, 0x16, 0x00, 0x00, 0x00, 0x00, 0x00, 0x00, 0x01,
  0x10, 0x00, 0x00, 0x00, 0x10, 0x00, 0x00, 0x00, 0x02, 0x00, 0x00, 0x00,
  0x1c, 0x00, 0x00, 0x00, 0x9c, 0xff, 0xff, 0xff, 0x0e, 0x00, 0x00, 0x00,
  0x61, 0x72, 0x69, 0x74, 0x68, 0x2e, 0x63, 0x6f, 0x6e, 0x73, 0x74, 0x61,
  0x6e, 0x74, 0x00, 0x00, 0x01, 0x00, 0x00, 0x00, 0x08, 0x00, 0x00, 0x00,
  0x00, 0x00, 0x16, 0x00, 0x1c, 0x00, 0x18, 0x00, 0x00, 0x00, 0x14, 0x00,
  0x10, 0x00, 0x0c, 0x00, 0x00, 0x00, 0x00, 0x00, 0x08, 0x00, 0x07, 0x00,
  0x16, 0x00, 0x00, 0x00, 0x00, 0x00, 0x00, 0x01, 0x14, 0x00, 0x00, 0x00,
  0x24, 0x00, 0x00, 0x00, 0x24, 0x00, 0x00, 0x00, 0x01, 0x00, 0x00, 0x00,
  0x44, 0x00, 0x00, 0x00, 0x03, 0x00, 0x00, 0x00, 0xff, 0xff, 0xff, 0xff,
  0x0a, 0x00, 0x00, 0x00, 0x07, 0x00, 0x00, 0x00, 0x04, 0x00, 0x04, 0x00,
  0x04, 0x00, 0x00, 0x00, 0x21, 0x00, 0x00, 0x00, 0x73, 0x65, 0x72, 0x76,
  0x69, 0x6e, 0x67, 0x5f, 0x64, 0x65, 0x66, 0x61, 0x75, 0x6c, 0x74, 0x5f,
  0x6b, 0x65, 0x72, 0x61, 0x73, 0x5f, 0x74, 0x65, 0x6e, 0x73, 0x6f, 0x72,
  0x5f, 0x31, 0x38, 0x3a, 0x30, 0x00, 0x00, 0x00, 0x03, 0x00, 0x00, 0x00,
  0x01, 0x00, 0x00, 0x00, 0x0a, 0x00, 0x00, 0x00, 0x07, 0x00, 0x00, 0x00,
  0x06, 0x00, 0x00, 0x00, 0x60, 0x00, 0x00, 0x00, 0x44, 0x00, 0x00, 0x00,
  0x34, 0x00, 0x00, 0x00, 0x24, 0x00, 0x00, 0x00, 0x14, 0x00, 0x00, 0x00,
  0x04, 0x00, 0x00, 0x00, 0xc4, 0xff, 0xff, 0xff, 0x0e, 0x00, 0x00, 0x00,
  0x00, 0x00, 0x00, 0x0e, 0xd0, 0xff, 0xff, 0xff, 0x09, 0x00, 0x00, 0x00,
  0x00, 0x00, 0x00, 0x09, 0xdc, 0xff, 0xff, 0xff, 0x52, 0x00, 0x00, 0x00,
  0x00, 0x00, 0x00, 0x52, 0xe8, 0xff, 0xff, 0xff, 0x16, 0x00, 0x00, 0x00,
  0x00, 0x00, 0x00, 0x16, 0xf4, 0xff, 0xff, 0xff, 0x03, 0x00, 0x00, 0x00,
  0x00, 0x00, 0x00, 0x03, 0x0c, 0x00, 0x0c, 0x00, 0x0b, 0x00, 0x00, 0x00,
  0x00, 0x00, 0x04, 0x00, 0x0c, 0x00, 0x00, 0x00, 0x46, 0x00, 0x00, 0x00,
  0x00, 0x00, 0x00, 0x46
};

const unsigned int model_data_len = 7384;

#endif
